<unk>	0
<s>	0
</s>	0
<prompt>	0
<song>	0
</song>	0
<happy>	0
<sad>	0
<angry>	0
<romantic>	0
<genre_pop>	0
<genre_rap>	0
<genre_rock>	0
<genre_rb>	0
[intro]	0
[verse]	0
[chorus]	0
[bridge]	0
[outro]	0
▁t	-0
▁i	-1
he	-2
▁a	-3
▁s	-4
in	-5
ou	-6
▁m	-7
▁w	-8
▁b	-9
▁the	-10
▁y	-11
▁c	-12
on	-13
▁d	-14
▁l	-15
re	-16
▁f	-17
▁g	-18
▁you	-19
ha	-20
er	-21
nd	-22
▁n	-23
ll	-24
▁p	-25
it	-26
▁to	-27
an	-28
ing	-29
es	-30
ck	-31
ow	-32
or	-33
▁and	-34
et	-35
ke	-36
hat	-37
ot	-38
en	-39
▁it	-40
st	-41
▁h	-42
ig	-43
▁o	-44
om	-45
▁in	-46
▁r	-47
ar	-48
ed	-49
▁my	-50
at	-51
is	-52
▁li	-53
▁on	-54
▁u	-55
as	-56
▁me	-57
▁th	-58
ay	-59
▁st	-60
ve	-61
▁e	-62
▁he	-63
▁be	-64
▁that	-65
oo	-66
le	-67
ch	-68
▁k	-69
ut	-70
se	-71
▁we	-72
▁of	-73
▁j	-74
al	-75
ver	-76
am	-77
▁(	-78
▁wit	-79
▁like	-80
out	-81
▁re	-82
ad	-83
▁ha	-84
id	-85
ld	-86
ht	-87
▁with	-88
▁your	-89
▁sh	-90
▁for	-91
▁get	-92
ce	-93
▁is	-94
▁nig	-95
▁up	-96
▁so	-97
ill	-98
ee	-99
▁got	-100
im	-101
ra	-102
op	-103
uck	-104
ir	-105
▁nigg	-106
▁ba	-107
▁kn	-108
▁ne	-109
▁don	-110
ust	-111
▁do	-112
▁but	-113
▁whe	-114
▁all	-115
▁[	-116
ie	-117
un	-118
ome	-119
ight	-120
all	-121
▁this	-122
▁wh	-123
ea	-124
ic	-125
▁can	-126
▁they	-127
▁ma	-128
au	-129
▁know	-130
▁go	-131
▁what	-132
▁no	-133
ur	-134
▁tr	-135
ook	-136
▁fr	-137
▁out	-138
us	-139
▁de	-140
ent	-141
▁lo	-142
her	-143
▁bl	-144
qu	-145
..	-146
▁when	-147
ion	-148
ick	-149
▁just	-150
na	-151
own	-152
▁as	-153
one	-154
▁wan	-155
ly	-156
ro	-157
ip	-158
ap	-159
▁ain	-160
ause	-161
▁fuck	-162
▁now	-163
▁v	-164
▁pl	-165
est	-166
▁sp	-167
▁mo	-168
▁'	-169
il	-170
ame	-171
um	-172
▁was	-173
▁if	-174
oug	-175
ct	-176
▁at	-177
ers	-178
▁se	-179
▁man	-180
▁an	-181
▁see	-182
▁nigga	-183
▁ro	-184
art	-185
ind	-186
▁shit	-187
▁she	-188
▁not	-189
ep	-190
ould	-191
▁ta	-192
▁from	-193
em	-194
▁ch	-195
▁ever	-196
eah	-197
ge	-198
▁back	-199
▁niggas	-200
fe	-201
▁bit	-202
▁bo	-203
▁la	-204
▁te	-205
ter	-206
▁wor	-207
▁cl	-208
▁down	-209
▁ho	-210
▁fa	-211
▁qu	-212
ime	-213
▁let	-214
ound	-215
ine	-216
▁who	-217
other	-218
ood	-219
ess	-220
han	-221
▁ya	-222
ack	-223
▁fl	-224
▁le	-225
▁one	-226
▁say	-227
ide	-228
▁some	-229
ive	-230
▁ke	-231
ough	-232
ta	-233
▁yeah	-234
▁make	-235
▁al	-236
our	-237
▁dr	-238
▁every	-239
▁cause	-240
ink	-241
▁love	-242
dy	-243
▁or	-244
▁her	-245
res	-246
▁com	-247
▁sa	-248
hook	-249
▁br	-250
ong	-251
▁co	-252
▁never	-253
▁ab	-254
che	-255
▁time	-256
▁them	-257
ist	-258
▁"	-259
ain	-260
and	-261
alk	-262
▁how	-263
eel	-264
▁want	-265
hing	-266
▁yo	-267
irl	-268
▁off	-269
▁try	-270
▁wanna	-271
by	-272
▁thr	-273
▁girl	-274
▁bitch	-275
▁take	-276
▁then	-277
▁un	-278
bo	-279
▁come	-280
ma	-281
▁feel	-282
ang	-283
▁look	-284
▁gon	-285
▁ar	-286
ies	-287
▁sm	-288
▁cr	-289
▁su	-290
▁keep	-291
itt	-292
▁sc	-293
▁life	-294
ass	-295
ate	-296
ol	-297
▁right	-298
▁sl	-299
▁gr	-300
el	-301
▁us	-302
▁rap	-303
ven	-304
▁have	-305
▁way	-306
▁pr	-307
▁con	-308
ock	-309
▁about	-310
oney	-311
▁baby	-312
▁sw	-313
if	-314
▁tell	-315
▁think	-316
ak	-317
ast	-318
▁here	-319
ard	-320
ore	-321
pp	-322
os	-323
▁play	-324
▁need	-325
▁these	-326
▁are	-327
ous	-328
ull	-329
ug	-330
...	-331
▁put	-332
▁real	-333
▁und	-334
atch	-335
▁there	-336
way	-337
▁than	-338
▁where	-339
red	-340
▁money	-341
pe	-342
▁che	-343
▁too	-344
▁bet	-345
▁day	-346
▁could	-347
▁oh	-348
ble	-349
▁tw	-350
▁call	-351
▁en	-352
iss	-353
▁will	-354
ich	-355
ty	-356
▁ass	-357
▁by	-358
me	-359
te	-360
urn	-361
▁still	-362
ally	-363
ul	-364
ice	-365
th	-366
▁pro	-367
▁har	-368
▁more	-369
▁bre	-370
body	-371
▁his	-372
cause	-373
fuck	-374
ars	-375
▁gotta	-376
▁talk	-377
▁through	-378
▁du	-379
ool	-380
▁been	-381
pin	-382
▁give	-383
▁hit	-384
ans	-385
ite	-386
to	-387
▁-	-388
ant	-389
▁run	-390
▁ex	-391
▁why	-392
▁z	-393
ile	-394
▁cha	-395
▁sha	-396
▁hat	-397
▁pe	-398
▁die	-399
kin	-400
ue	-401
▁over	-402
tin	-403
nds	-404
▁big	-405
▁had	-406
ation	-407
▁am	-408
▁good	-409
▁stop	-410
▁mad	-411
▁wa	-412
hh	-413
lf	-414
▁im	-415
▁thing	-416
▁boy	-417
iz	-418
▁kill	-419
iv	-420
ff	-421
▁em	-422
▁hard	-423
▁fe	-424
ond	-425
▁show	-426
ag	-427
▁did	-428
ure	-429
▁som	-430
▁even	-431
ire	-432
▁rock	-433
▁lea	-434
ub	-435
▁new	-436
▁head	-437
▁mother	-438
▁game	-439
▁2	-440
hy	-441
▁stre	-442
ber	-443
ches	-444
ity	-445
▁tra	-446
▁ver	-447
▁said	-448
per	-449
▁je	-450
▁gu	-451
ree	-452
▁1	-453
igh	-454
are	-455
uh	-456
ry	-457
ets	-458
▁cra	-459
ash	-460
ne	-461
▁only	-462
▁world	-463
▁ich	-464
ng	-465
▁wr	-466
ady	-467
ream	-468
oh	-469
▁somet	-470
king	-471
▁better	-472
▁would	-473
▁mind	-474
▁him	-475
▁around	-476
▁str	-477
ah	-478
▁gonna	-479
▁night	-480
be	-481
▁smo	-482
de	-483
▁roll	-484
▁beat	-485
ase	-486
ting	-487
▁chan	-488
▁po	-489
ace	-490
ought	-491
▁black	-492
ise	-493
▁ag	-494
pl	-495
▁stay	-496
ss	-497
ord	-498
ittle	-499
unk	-500
▁start	-501
▁da	-502
▁little	-503
ose	-504
▁ey	-505
▁fo	-506
ress	-507
ft	-508
ump	-509
▁turn	-510
▁god	-511
nt	-512
ac	-513
!)	-514
orn	-515
age	-516
▁uh	-517
hin	-518
▁peop	-519
ope	-520
▁part	-521
▁really	-522
▁any	-523
ix	-524
ving	-525
▁motherfuck	-526
▁under	-527
▁hold	-528
ach	-529
▁high	-530
▁des	-531
▁live	-532
vin	-533
▁que	-534
up	-535
▁watch	-536
▁people	-537
▁gl	-538
▁two	-539
▁home	-540
▁won	-541
▁our	-542
▁gre	-543
les	-544
▁bu	-545
▁bra	-546
ort	-547
▁rhy	-548
▁gra	-549
▁kid	-550
▁pop	-551
ied	-552
ath	-553
',	-554
fore	-555
get	-556
▁sk	-557
▁sch	-558
▁pre	-559
ild	-560
ish	-561
▁les	-562
▁while	-563
▁cou	-564
▁bad	-565
uch	-566
▁face	-567
▁should	-568
ell	-569
▁hot	-570
▁flow	-571
▁stra	-572
ance	-573
ab	-574
aug	-575
▁dam	-576
ark	-577
▁bitches	-578
▁drop	-579
▁light	-580
▁name	-581
zy	-582
ways	-583
▁hear	-584
▁car	-585
▁again	-586
▁long	-587
ens	-588
uz	-589
▁before	-590
▁act	-591
▁bring	-592
thing	-593
▁break	-594
▁made	-595
ib	-596
irst	-597
ked	-598
▁sho	-599
▁check	-600
orus	-601
▁leave	-602
▁word	-603
ci	-604
side	-605
▁af	-606
ped	-607
▁gun	-608
▁hand	-609
▁cre	-610
ts	-611
▁rem	-612
▁walk	-613
▁always	-614
▁heart	-615
▁same	-616
▁pus	-617
▁dis	-618
ping	-619
▁bel	-620
til	-621
▁well	-622
▁blow	-623
▁jo	-624
▁bro	-625
imes	-626
▁best	-627
sh	-628
▁au	-629
▁done	-630
▁fuckin	-631
▁mic	-632
▁ra	-633
▁gang	-634
▁into	-635
▁first	-636
ont	-637
▁war	-638
outh	-639
▁ad	-640
self	-641
▁et	-642
▁damn	-643
▁its	-644
▁young	-645
ict	-646
▁may	-647
▁thought	-648
ze	-649
▁fly	-650
▁top	-651
der	-652
▁ride	-653
gg	-654
▁hey	-655
▁hell	-656
▁hoes	-657
▁sur	-658
▁another	-659
▁away	-660
ier	-661
ves	-662
▁other	-663
▁find	-664
▁mus	-665
▁shot	-666
kes	-667
▁es	-668
▁pas	-669
pt	-670
▁pass	-671
▁dream	-672
▁gone	-673
▁wait	-674
▁sin	-675
▁list	-676
▁whole	-677
▁frie	-678
▁cuz	-679
▁sn	-680
▁miss	-681
▁fre	-682
▁eyes	-683
ouse	-684
xt	-685
▁swe	-686
▁par	-687
ama	-688
▁mon	-689
ple	-690
▁might	-691
oul	-692
▁na	-693
▁much	-694
ho	-695
▁gettin	-696
int	-697
ors	-698
▁ball	-699
▁hood	-700
day	-701
ats	-702
▁stand	-703
▁ye	-704
▁last	-705
▁told	-706
▁rec	-707
▁move	-708
ud	-709
▁nothing	-710
▁end	-711
▁per	-712
eep	-713
▁mean	-714
▁hom	-715
▁block	-716
la	-717
ence	-718
sy	-719
▁fall	-720
▁bust	-721
▁dick	-722
▁everybody	-723
▁ton	-724
▁came	-725
ster	-726
▁throw	-727
?)	-728
ank	-729
▁work	-730
ins	-731
▁lot	-732
▁cut	-733
▁old	-734
▁fucking	-735
▁ple	-736
▁son	-737
▁pull	-738
▁something	-739
yeah	-740
ated	-741
▁going	-742
▁step	-743
uff	-744
▁den	-745
mma	-746
▁things	-747
▁getting	-748
▁mom	-749
▁because	-750
ia	-751
▁pain	-752
▁dead	-753
ater	-754
we	-755
ather	-756
▁body	-757
▁straight	-758
▁bot	-759
▁everything	-760
▁listen	-761
▁left	-762
▁kick	-763
▁bout	-764
▁ready	-765
!!	-766
ning	-767
▁res	-768
▁belie	-769
▁pa	-770
ment	-771
aught	-772
▁3	-773
▁their	-774
ions	-775
▁mar	-776
ms	-777
▁spe	-778
▁own	-779
ons	-780
▁thug	-781
▁streets	-782
▁ge	-783
▁next	-784
▁sound	-785
ung	-786
▁house	-787
▁pay	-788
▁der	-789
▁happ	-790
pect	-791
▁trying	-792
▁smoke	-793
▁ph	-794
und	-795
ric	-796
▁hate	-797
▁à	-798
ps	-799
▁sle	-800
que	-801
▁side	-802
yle	-803
▁mat	-804
ign	-805
▁girls	-806
▁ly	-807
lo	-808
less	-809
▁min	-810
▁ste	-811
▁dir	-812
igg	-813
▁many	-814
▁song	-815
▁vo	-816
▁full	-817
▁fin	-818
▁cop	-819
▁tryin	-820
▁used	-821
▁cle	-822
▁city	-823
mes	-824
mer	-825
▁suck	-826
▁heard	-827
▁change	-828
ade	-829
▁ac	-830
▁music	-831
ny	-832
▁free	-833
▁dem	-834
ren	-835
▁hands	-836
▁set	-837
▁after	-838
▁street	-839
▁bull	-840
▁di	-841
▁tou	-842
▁pour	-843
▁catch	-844
▁spit	-845
eak	-846
▁chick	-847
pen	-848
▁rid	-849
▁plus	-850
▁club	-851
▁blood	-852
▁place	-853
ippin	-854
▁sing	-855
▁hop	-856
ane	-857
▁white	-858
▁believe	-859
▁didn	-860
▁brother	-861
▁tre	-862
▁soul	-863
▁fight	-864
ness	-865
▁though	-866
▁seen	-867
▁fam	-868
▁mine	-869
ips	-870
▁crack	-871
wn	-872
▁er	-873
▁bang	-874
▁party	-875
▁were	-876
▁burn	-877
▁pap	-878
▁eat	-879
ai	-880
▁ser	-881
▁mur	-882
▁bus	-883
ings	-884
ste	-885
here	-886
▁cold	-887
▁dou	-888
ory	-889
▁crazy	-890
▁wrong	-891
▁drink	-892
oun	-893
▁ask	-894
▁tu	-895
▁{	-896
▁without	-897
ect	-898
gs	-899
▁?	-900
▁care	-901
▁cool	-902
io	-903
ys	-904
▁kind	-905
▁rep	-906
bl	-907
▁verse	-908
▁low	-909
av	-910
▁4	-911
▁since	-912
▁red	-913
▁fool	-914
▁mc	-915
▁deal	-916
▁hust	-917
aa	-918
ever	-919
pers	-920
ize	-921
man	-922
▁goin	-923
▁met	-924
▁kne	-925
▁sun	-926
ave	-927
▁sleep	-928
bout	-929
sta	-930
▁bar	-931
▁please	-932
▁sick	-933
▁track	-934
▁flo	-935
att	-936
▁nobody	-937
▁mill	-938
▁broke	-939
cha	-940
het	-941
hes	-942
▁dans	-943
▁fun	-944
▁slow	-945
▁chorus	-946
▁chr	-947
▁lil	-948
▁ill	-949
▁ein	-950
▁coming	-951
▁those	-952
▁shoot	-953
co	-954
my	-955
▁el	-956
▁looking	-957
▁mi	-958
▁ty	-959
mon	-960
▁cont	-961
▁hip	-962
▁hur	-963
▁app	-964
you	-965
▁three	-966
gin	-967
▁fire	-968
▁att	-969
bs	-970
▁open	-971
▁cash	-972
▁must	-973
▁talking	-974
ved	-975
▁wom	-976
▁sec	-977
▁till	-978
itch	-979
▁yes	-980
llow	-981
ily	-982
stand	-983
▁comin	-984
▁style	-985
icht	-986
▁star	-987
▁lay	-988
▁sex	-989
▁tryna	-990
nin	-991
▁comp	-992
what	-993
▁enough	-994
▁kids	-995
▁x	-996
▁lookin	-997
▁qui	-998
▁took	-999
▁quick	-1000
▁pussy	-1001
og	-1002
▁sit	-1003
▁deep	-1004
▁hel	-1005
ute	-1006
▁chill	-1007
oud	-1008
no	-1009
▁front	-1010
▁weed	-1011
▁until	-1012
▁ce	-1013
▁guess	-1014
ger	-1015
als	-1016
ious	-1017
▁crew	-1018
▁inside	-1019
ces	-1020
▁lost	-1021
▁days	-1022
▁friends	-1023
▁ve	-1024
▁plan	-1025
ird	-1026
▁est	-1027
▁true	-1028
its	-1029
▁pim	-1030
▁nothin	-1031
▁line	-1032
ux	-1033
▁times	-1034
▁ja	-1035
▁rest	-1036
▁dope	-1037
ember	-1038
▁king	-1039
▁hope	-1040
ittin	-1041
▁cap	-1042
ks	-1043
▁talkin	-1044
▁tonight	-1045
ner	-1046
yo	-1047
▁gold	-1048
uth	-1049
▁stick	-1050
ction	-1051
▁feeling	-1052
▁mouth	-1053
lin	-1054
▁doll	-1055
▁fore	-1056
▁pen	-1057
▁ist	-1058
the	-1059
▁death	-1060
▁pol	-1061
▁living	-1062
▁pack	-1063
▁touch	-1064
▁squ	-1065
umb	-1066
▁&	-1067
mo	-1068
▁sell	-1069
▁dra	-1070
▁rhyme	-1071
▁bott	-1072
gr	-1073
▁rhymes	-1074
▁5	-1075
▁myself	-1076
▁cal	-1077
▁huh	-1078
cr	-1079
come	-1080
▁fast	-1081
▁understand	-1082
da	-1083
ary	-1084
▁spot	-1085
ames	-1086
▁win	-1087
▁school	-1088
),	-1089
▁went	-1090
ross	-1091
▁ca	-1092
▁dad	-1093
▁air	-1094
▁fres	-1095
▁mot	-1096
▁dif	-1097
▁ghet	-1098
▁pick	-1099
ush	-1100
▁most	-1101
▁das	-1102
▁remember	-1103
chorus	-1104
▁couldn	-1105
▁ben	-1106
▁freak	-1107
▁jack	-1108
mm	-1109
vel	-1110
ife	-1111
▁lock	-1112
▁pea	-1113
▁four	-1114
▁dog	-1115
lt	-1116
▁lie	-1117
▁words	-1118
▁speak	-1119
▁matter	-1120
▁brain	-1121
▁knock	-1122
ged	-1123
00	-1124
▁far	-1125
hed	-1126
▁vi	-1127
▁cry	-1128
ition	-1129
arn	-1130
▁lyric	-1131
▁fat	-1132
▁ghetto	-1133
▁buck	-1134
unt	-1135
pr	-1136
▁doin	-1137
▁wie	-1138
▁has	-1139
▁half	-1140
▁doing	-1141
▁boys	-1142
▁dance	-1143
▁door	-1144
▁sold	-1145
vil	-1146
▁ble	-1147
▁maybe	-1148
▁goes	-1149
ian	-1150
onder	-1151
▁ind	-1152
hr	-1153
▁ice	-1154
▁jump	-1155
gen	-1156
▁knew	-1157
▁sure	-1158
▁six	-1159
▁tight	-1160
▁fact	-1161
▁nut	-1162
rain	-1163
go	-1164
▁ent	-1165
▁motherfucker	-1166
▁wind	-1167
▁scream	-1168
ason	-1169
▁men	-1170
▁paper	-1171
▁heat	-1172
▁é	-1173
▁once	-1174
▁alone	-1175
hafuck	-1176
rent	-1177
▁round	-1178
▁ah	-1179
ien	-1180
▁hook	-1181
atin	-1182
▁ok	-1183
▁auf	-1184
▁trip	-1185
ched	-1186
ines	-1187
▁record	-1188
▁pow	-1189
uis	-1190
oose	-1191
▁diffe	-1192
lle	-1193
▁fresh	-1194
▁gangsta	-1195
▁truth	-1196
els	-1197
az	-1198
▁dan	-1199
▁kiss	-1200
ills	-1201
▁somethin	-1202
vers	-1203
▁funk	-1204
▁mut	-1205
▁mess	-1206
▁past	-1207
▁sky	-1208
▁rain	-1209
▁peace	-1210
▁started	-1211
orm	-1212
▁child	-1213
▁close	-1214
▁pos	-1215
right	-1216
▁flip	-1217
▁south	-1218
▁mir	-1219
▁giv	-1220
▁dark	-1221
▁green	-1222
▁hang	-1223
▁livin	-1224
▁wonder	-1225
▁respect	-1226
▁west	-1227
▁somebody	-1228
▁town	-1229
▁wish	-1230
ared	-1231
▁wall	-1232
▁use	-1233
ik	-1234
▁ins	-1235
gether	-1236
oop	-1237
tain	-1238
head	-1239
mp	-1240
▁being	-1241
▁nicht	-1242
▁boot	-1243
▁holl	-1244
▁forget	-1245
▁years	-1246
ref	-1247
▁mama	-1248
▁rappers	-1249
▁9	-1250
▁nice	-1251
▁grind	-1252
▁fucked	-1253
▁caught	-1254
▁boo	-1255
▁comes	-1256
ef	-1257
ics	-1258
ards	-1259
▁together	-1260
po	-1261
ones	-1262
▁cur	-1263
where	-1264
▁does	-1265
▁wee	-1266
▁ten	-1267
▁pur	-1268
▁mag	-1269
▁super	-1270
asy	-1271
br	-1272
▁sy	-1273
ced	-1274
▁room	-1275
▁lose	-1276
▁bom	-1277
▁stack	-1278
▁happen	-1279
▁murder	-1280
▁making	-1281
▁grab	-1282
▁scr	-1283
▁help	-1284
▁sie	-1285
▁vie	-1286
▁prob	-1287
bt	-1288
▁gets	-1289
▁sayin	-1290
▁shake	-1291
ike	-1292
▁mit	-1293
!"	-1294
▁wasn	-1295
▁rich	-1296
hind	-1297
▁buy	-1298
▁haters	-1299
ical	-1300
▁lord	-1301
orr	-1302
▁homie	-1303
▁behind	-1304
▁drug	-1305
▁zu	-1306
??	-1307
▁gave	-1308
▁pray	-1309
▁type	-1310
▁great	-1311
▁fake	-1312
▁shine	-1313
chen	-1314
▁*	-1315
▁lad	-1316
▁strong	-1317
cl	-1318
va	-1319
▁friend	-1320
▁cho	-1321
▁wild	-1322
▁dont	-1323
fr	-1324
▁dirty	-1325
▁supp	-1326
ique	-1327
▁proble	-1328
unch	-1329
▁ay	-1330
▁ooh	-1331
peat	-1332
ooh	-1333
itting	-1334
aut	-1335
▁char	-1336
ably	-1337
led	-1338
ork	-1339
?"	-1340
▁pie	-1341
▁vis	-1342
ial	-1343
ange	-1344
▁floor	-1345
pre	-1346
▁hy	-1347
▁late	-1348
▁comme	-1349
ii	-1350
fect	-1351
▁num	-1352
▁hund	-1353
ão	-1354
▁mid	-1355
ca	-1356
▁follow	-1357
▁mais	-1358
ten	-1359
▁til	-1360
▁mal	-1361
▁sim	-1362
resent	-1363
▁saying	-1364
▁team	-1365
▁different	-1366
▁five	-1367
▁wo	-1368
▁pict	-1369
▁sign	-1370
▁rob	-1371
▁eye	-1372
▁feelin	-1373
▁makin	-1374
ape	-1375
ling	-1376
▁blue	-1377
do	-1378
▁mr	-1379
▁corn	-1380
▁ter	-1381
▁dreams	-1382
refrain	-1383
▁pat	-1384
▁probably	-1385
▁feet	-1386
▁aw	-1387
▁gen	-1388
▁yourself	-1389
▁bed	-1390
▁cock	-1391
ounce	-1392
▁sweet	-1393
▁reg	-1394
▁imp	-1395
du	-1396
▁daddy	-1397
▁cam	-1398
cle	-1399
▁learn	-1400
▁si	-1401
ls	-1402
ph	-1403
dd	-1404
▁guns	-1405
▁trust	-1406
▁tried	-1407
ça	-1408
▁spl	-1409
cou	-1410
▁mix	-1411
▁paid	-1412
▁dé	-1413
cus	-1414
▁class	-1415
so	-1416
iff	-1417
ille	-1418
ith	-1419
osed	-1420
▁blast	-1421
▁hundred	-1422
vo	-1423
icks	-1424
▁forever	-1425
▁running	-1426
▁year	-1427
ible	-1428
ote	-1429
▁boss	-1430
▁land	-1431
▁ima	-1432
▁phone	-1433
▁grow	-1434
▁runnin	-1435
▁prom	-1436
cer	-1437
oof	-1438
iness	-1439
▁fie	-1440
▁ou	-1441
▁thinking	-1442
▁yea	-1443
▁spr	-1444
▁test	-1445
▁meet	-1446
▁found	-1447
▁less	-1448
▁second	-1449
▁sna	-1450
ba	-1451
enty	-1452
▁family	-1453
▁ment	-1454
▁beats	-1455
▁contro	-1456
▁une	-1457
▁prop	-1458
▁inf	-1459
▁neck	-1460
part	-1461
▁wear	-1462
ready	-1463
ired	-1464
▁born	-1465
▁mein	-1466
ugg	-1467
ject	-1468
ift	-1469
▁pock	-1470
▁send	-1471
▁couple	-1472
ben	-1473
▁write	-1474
▁conf	-1475
▁spend	-1476
▁tom	-1477
▁pret	-1478
plet	-1479
ents	-1480
cy	-1481
▁ju	-1482
▁bas	-1483
▁laug	-1484
▁yet	-1485
ures	-1486
▁makes	-1487
▁ret	-1488
▁saw	-1489
▁diam	-1490
rew	-1491
▁dat	-1492
▁sometimes	-1493
▁million	-1494
ful	-1495
▁rel	-1496
rop	-1497
▁whatever	-1498
▁clot	-1499
▁soon	-1500
oooo	-1501
▁col	-1502
▁cour	-1503
▁mich	-1504
▁thang	-1505
▁dough	-1506
▁dig	-1507
▁point	-1508
mit	-1509
▁motherfuckin	-1510
▁int	-1511
ler	-1512
▁def	-1513
▁fing	-1514
▁count	-1515
▁nine	-1516
dle	-1517
huh	-1518
▁ele	-1519
▁fill	-1520
use	-1521
▁art	-1522
▁already	-1523
▁‘	-1524
▁rip	-1525
▁diamond	-1526
▁bur	-1527
ür	-1528
▁ear	-1529
▁pretty	-1530
hop	-1531
hhhh	-1532
▁stress	-1533
▁wake	-1534
▁water	-1535
▁hum	-1536
▁grand	-1537
▁double	-1538
▁morn	-1539
hen	-1540
▁tea	-1541
▁lights	-1542
▁wouldn	-1543
▁number	-1544
▁reason	-1545
▁ru	-1546
▁rapper	-1547
▁women	-1548
ene	-1549
▁beef	-1550
▁alright	-1551
▁power	-1552
▁shots	-1553
▁cats	-1554
▁mil	-1555
time	-1556
▁tem	-1557
▁motherfuckers	-1558
min	-1559
▁nah	-1560
arth	-1561
▁ladies	-1562
▁scared	-1563
▁build	-1564
ates	-1565
▁pers	-1566
▁add	-1567
▁lead	-1568
ots	-1569
land	-1570
let	-1571
▁outta	-1572
▁bin	-1573
lly	-1574
▁swag	-1575
sing	-1576
▁ground	-1577
pped	-1578
ating	-1579
▁sum	-1580
▁quest	-1581
▁yell	-1582
enn	-1583
▁raw	-1584
▁hurt	-1585
▁chop	-1586
▁rollin	-1587
aven	-1588
▁mist	-1589
▁thats	-1590
shit	-1591
▁fine	-1592
ense	-1593
▁known	-1594
iver	-1595
▁inter	-1596
▁bless	-1597
▁today	-1598
▁stuck	-1599
▁hair	-1600
ooked	-1601
des	-1602
▁batt	-1603
▁mer	-1604
▁cat	-1605
▁med	-1606
▁mes	-1607
▁inv	-1608
▁clean	-1609
▁road	-1610
▁,	-1611
▁sal	-1612
▁fel	-1613
▁wanted	-1614
▁easy	-1615
▁cops	-1616
▁tha	-1617
▁earth	-1618
able	-1619
▁box	-1620
▁dj	-1621
▁lick	-1622
▁pound	-1623
▁bill	-1624
▁det	-1625
▁drive	-1626
▁thinkin	-1627
nn	-1628
ual	-1629
▁muthafuck	-1630
ret	-1631
--	-1632
▁east	-1633
▁ones	-1634
▁clothes	-1635
▁wet	-1636
▁playin	-1637
▁skin	-1638
▁expl	-1639
▁called	-1640
▁fut	-1641
▁8	-1642
▁ça	-1643
▁cas	-1644
▁pump	-1645
▁bag	-1646
ants	-1647
▁twist	-1648
▁wir	-1649
▁law	-1650
▁clear	-1651
▁pimp	-1652
cc	-1653
▁6	-1654
▁chance	-1655
▁business	-1656
▁anything	-1657
une	-1658
ations	-1659
▁heaven	-1660
▁bomb	-1661
▁read	-1662
▁fig	-1663
▁everyday	-1664
▁mach	-1665
▁aut	-1666
▁chain	-1667
▁cor	-1668
▁whip	-1669
▁short	-1670
▁jet	-1671
▁ring	-1672
▁else	-1673
ais	-1674
oth	-1675
ère	-1676
ised	-1677
ract	-1678
▁mas	-1679
▁york	-1680
▁fle	-1681
▁fear	-1682
ues	-1683
▁coll	-1684
▁dec	-1685
men	-1686
....	-1687
▁sor	-1688
▁sil	-1689
▁state	-1690
ey	-1691
▁cross	-1692
▁represent	-1693
str	-1694
▁jam	-1695
▁ref	-1696
▁kinda	-1697
▁devil	-1698
▁okay	-1699
bel	-1700
▁dollar	-1701
▁few	-1702
▁breat	-1703
▁taking	-1704
▁control	-1705
▁both	-1706
▁coast	-1707
ils	-1708
▁beaut	-1709
upid	-1710
▁dest	-1711
▁blind	-1712
▁lady	-1713
hey	-1714
▁hustle	-1715
zz	-1716
▁dy	-1717
▁fell	-1718
▁smile	-1719
ert	-1720
▁uhh	-1721
▁ed	-1722
▁chest	-1723
ana	-1724
ult	-1725
act	-1726
▁bank	-1727
▁picture	-1728
vie	-1729
gn	-1730
▁pot	-1731
▁crow	-1732
▁playing	-1733
orty	-1734
▁punk	-1735
ken	-1736
cher	-1737
rr	-1738
ween	-1739
▁tout	-1740
▁smokin	-1741
atic	-1742
▁boom	-1743
▁press	-1744
▁push	-1745
boy	-1746
▁cla	-1747
ient	-1748
▁sche	-1749
▁clap	-1750
▁hab	-1751
izz	-1752
sin	-1753
▁cons	-1754
▁sent	-1755
ton	-1756
▁main	-1757
▁reach	-1758
ison	-1759
▁each	-1760
*}	-1761
▁um	-1762
▁dude	-1763
cial	-1764
▁doch	-1765
▁sat	-1766
▁minute	-1767
▁fame	-1768
▁knows	-1769
▁none	-1770
▁brothers	-1771
ove	-1772
▁dumb	-1773
▁surv	-1774
ri	-1775
▁story	-1776
▁rad	-1777
▁glock	-1778
ours	-1779
town	-1780
▁swear	-1781
▁cars	-1782
▁between	-1783
that	-1784
irt	-1785
ground	-1786
▁click	-1787
yy	-1788
▁]	-1789
ron	-1790
urs	-1791
▁worth	-1792
iß	-1793
▁self	-1794
▁{*	-1795
▁case	-1796
▁doubt	-1797
anger	-1798
▁bird	-1799
haha	-1800
▁takin	-1801
▁bounce	-1802
ror	-1803
▁job	-1804
▁smell	-1805
▁fif	-1806
ows	-1807
▁heav	-1808
▁momma	-1809
▁dress	-1810
▁mack	-1811
com	-1812
▁rather	-1813
round	-1814
▁shorty	-1815
▁sam	-1816
▁del	-1817
read	-1818
umpin	-1819
▁hon	-1820
▁forg	-1821
▁aus	-1822
▁weak	-1823
▁stupid	-1824
▁pres	-1825
▁shut	-1826
▁pet	-1827
tra	-1828
▁ave	-1829
dam	-1830
▁alive	-1831
ker	-1832
bin	-1833
▁fed	-1834
back	-1835
▁funny	-1836
▁waiting	-1837
▁lou	-1838
▁trou	-1839
▁thugs	-1840
ja	-1841
orrow	-1842
és	-1843
ga	-1844
▁ob	-1845
▁very	-1846
▁piece	-1847
▁christ	-1848
▁future	-1849
sw	-1850
illa	-1851
bum	-1852
▁crowd	-1853
▁enem	-1854
▁dogg	-1855
ohn	-1856
▁wife	-1857
▁trick	-1858
▁homies	-1859
ina	-1860
▁cand	-1861
▁shoes	-1862
ither	-1863
tend	-1864
ses	-1865
tre	-1866
ica	-1867
▁bullshit	-1868
▁quit	-1869
ipe	-1870
▁arm	-1871
▁fol	-1872
▁master	-1873
▁!	-1874
▁wast	-1875
▁father	-1876
▁police	-1877
▁corner	-1878
▁fra	-1879
▁save	-1880
▁gat	-1881
▁seems	-1882
▁someone	-1883
▁cell	-1884
▁mis	-1885
▁yours	-1886
cin	-1887
imin	-1888
▁brown	-1889
▁against	-1890
▁wis	-1891
▁tip	-1892
▁woman	-1893
▁drunk	-1894
ese	-1895
▁person	-1896
▁guy	-1897
▁quand	-1898
▁eight	-1899
▁comm	-1900
▁glass	-1901
▁jew	-1902
▁10	-1903
▁spin	-1904
▁morning	-1905
▁lyrics	-1906
▁park	-1907
ann	-1908
verse	-1909
▁shout	-1910
▁kom	-1911
rap	-1912
▁crib	-1913
▁exp	-1914
▁bump	-1915
▁seem	-1916
▁which	-1917
▁wack	-1918
▁esc	-1919
▁benz	-1920
▁nat	-1921
▁dies	-1922
▁scene	-1923
▁ev	-1924
▁battle	-1925
▁sip	-1926
▁gut	-1927
▁heavy	-1928
iful	-1929
▁moi	-1930
jo	-1931
now	-1932
▁puff	-1933
▁hung	-1934
▁wenn	-1935
▁happy	-1936
▁breath	-1937
▁sol	-1938
▁thoughts	-1939
fl	-1940
ale	-1941
vor	-1942
bre	-1943
▁holla	-1944
▁blunt	-1945
ern	-1946
▁stars	-1947
cept	-1948
couplet	-1949
▁locked	-1950
▁rub	-1951
▁book	-1952
▁ridin	-1953
▁problem	-1954
▁broad	-1955
cent	-1956
▁creep	-1957
vy	-1958
▁diss	-1959
▁kr	-1960
▁piss	-1961
▁ange	-1962
▁cook	-1963
▁tired	-1964
▁repeat	-1965
▁switch	-1966
ident	-1967
▁für	-1968
erve	-1969
cho	-1970
ley	-1971
▁drama	-1972
▁middle	-1973
▁album	-1974
▁nor	-1975
▁ihr	-1976
▁bars	-1977
▁strip	-1978
pa	-1979
▁ways	-1980
▁train	-1981
▁mark	-1982
▁nur	-1983
ator	-1984
▁playa	-1985
▁swing	-1986
▁gim	-1987
▁loud	-1988
▁dich	-1989
▁shaw	-1990
▁perfect	-1991
ka	-1992
▁begin	-1993
▁thank	-1994
.,	-1995
▁mem	-1996
▁:	-1997
▁wre	-1998
▁sorry	-1999
▁turned	-2000
cing	-2001
▁felt	-2002
▁luck	-2003
illy	-2004
▁por	-2005
▁bone	-2006
▁leg	-2007
▁mac	-2008
▁von	-2009
▁handle	-2010
▁hide	-2011
▁smoking	-2012
▁later	-2013
▁mob	-2014
▁shop	-2015
▁slip	-2016
▁bow	-2017
tr	-2018
▁drugs	-2019
▁cent	-2020
not	-2021
▁summer	-2022
▁lu	-2023
▁rocks	-2024
▁stuff	-2025
▁fan	-2026
▁peep	-2027
▁stage	-2028
ief	-2029
▁means	-2030
▁poppin	-2031
▁hig	-2032
ball	-2033
suis	-2034
ution	-2035
ming	-2036
▁twenty	-2037
▁jer	-2038
ousand	-2039
uit	-2040
▁feed	-2041
▁chicks	-2042
▁20	-2043
▁bon	-2044
▁ran	-2045
▁pist	-2046
▁duck	-2047
▁stom	-2048
who	-2049
▁bat	-2050
▁ze	-2051
▁brand	-2052
▁coke	-2053
▁viol	-2054
▁zone	-2055
▁motherfucking	-2056
▁exc	-2057
don	-2058
▁dist	-2059
▁taste	-2060
▁john	-2061
frie	-2062
▁honey	-2063
ww	-2064
▁sad	-2065
ony	-2066
▁clos	-2067
▁inc	-2068
▁funky	-2069
▁bread	-2070
ement	-2071
▁dein	-2072
ake	-2073
▁hoe	-2074
▁jail	-2075
▁rul	-2076
▁amer	-2077
sp	-2078
▁id	-2079
▁week	-2080
▁cir	-2081
▁shar	-2082
▁heads	-2083
▁beautiful	-2084
bor	-2085
▁small	-2086
sch	-2087
▁hits	-2088
ada	-2089
ention	-2090
▁liqu	-2091
▁ug	-2092
▁champ	-2093
gie	-2094
▁shawty	-2095
▁bought	-2096
▁player	-2097
▁truck	-2098
▁prof	-2099
▁dip	-2100
oss	-2101
for	-2102
▁lean	-2103
cci	-2104
▁lies	-2105
▁cup	-2106
▁tal	-2107
▁7	-2108
▁eu	-2109
igga	-2110
▁feels	-2111
▁emp	-2112
▁tear	-2113
bed	-2114
ws	-2115
▁bleed	-2116
▁food	-2117
▁such	-2118
▁ign	-2119
ude	-2120
▁ric	-2121
stead	-2122
▁loose	-2123
▁tears	-2124
▁div	-2125
▁clip	-2126
▁voice	-2127
▁paint	-2128
ti	-2129
▁soft	-2130
▁aim	-2131
zt	-2132
ette	-2133
ges	-2134
oup	-2135
▁sub	-2136
▁dire	-2137
▁either	-2138
▁changed	-2139
▁thousand	-2140
lic	-2141
▁laugh	-2142
▁crime	-2143
▁wel	-2144
▁tick	-2145
▁tech	-2146
▁weight	-2147
▁bottom	-2148
▁strugg	-2149
▁sweat	-2150
▁kept	-2151
▁movin	-2152
ino	-2153
▁clock	-2154
▁denn	-2155
▁treat	-2156
urch	-2157
ther	-2158
▁lips	-2159
tes	-2160
▁tracks	-2161
fo	-2162
▁writ	-2163
▁load	-2164
▁rise	-2165
▁space	-2166
▁bal	-2167
▁pocket	-2168
▁steady	-2169
▁sittin	-2170
▁jud	-2171
▁wha	-2172
iers	-2173
▁level	-2174
▁ahead	-2175
▁outside	-2176
uss	-2177
▁tap	-2178
▁avec	-2179
▁ik	-2180
▁diamonds	-2181
▁raps	-2182
▁instead	-2183
▁moving	-2184
▁teach	-2185
▁mam	-2186
▁sist	-2187
aughter	-2188
▁attack	-2189
▁trunk	-2190
▁radio	-2191
wo	-2192
con	-2193
▁bass	-2194
▁prin	-2195
line	-2196
▁gas	-2197
▁foot	-2198
▁bla	-2199
▁takes	-2200
▁question	-2201
▁moment	-2202
▁finger	-2203
▁lines	-2204
▁dirt	-2205
son	-2206
▁alle	-2207
host	-2208
ized	-2209
▁fait	-2210
▁fit	-2211
▁rockin	-2212
▁giving	-2213
▁jes	-2214
▁...	-2215
▁ni	-2216
▁pistol	-2217
▁ai	-2218
▁steal	-2219
▁riding	-2220
▁grown	-2221
arr	-2222
▁nous	-2223
arch	-2224
▁evil	-2225
▁slang	-2226
▁project	-2227
▁tong	-2228
▁clown	-2229
▁focus	-2230
ij	-2231
ists	-2232
▁fools	-2233
ades	-2234
▁produ	-2235
▁band	-2236
▁along	-2237
▁tim	-2238
▁killed	-2239
▁seven	-2240
key	-2241
▁pra	-2242
▁cream	-2243
▁il	-2244
▁stud	-2245
▁speed	-2246
▁trop	-2247
▁thick	-2248
▁coun	-2249
▁mass	-2250
damn	-2251
light	-2252
▁bub	-2253
▁bud	-2254
▁claim	-2255
arter	-2256
vi	-2257
▁worry	-2258
ually	-2259
▁bes	-2260
▁shin	-2261
▁tor	-2262
▁played	-2263
▁fron	-2264
▁walking	-2265
▁dee	-2266
▁higher	-2267
▁above	-2268
roph	-2269
▁hier	-2270
ience	-2271
gend	-2272
▁form	-2273
▁wreck	-2274
uu	-2275
▁grip	-2276
▁single	-2277
cal	-2278
▁bigger	-2279
gun	-2280
alous	-2281
▁bright	-2282
▁ham	-2283
▁telling	-2284
▁tour	-2285
▁sense	-2286
▁sind	-2287
▁split	-2288
▁rolling	-2289
▁wat	-2290
▁yall	-2291
gu	-2292
▁givin	-2293
▁lets	-2294
▁bottle	-2295
hhh	-2296
▁lone	-2297
friend	-2298
▁mission	-2299
▁nach	-2300
▁uns	-2301
amed	-2302
▁dre	-2303
den	-2304
▁killa	-2305
▁killin	-2306
▁+	-2307
▁fans	-2308
▁everywhere	-2309
▁spo	-2310
▁fade	-2311
▁flows	-2312
▁tomorrow	-2313
▁everyone	-2314
▁smack	-2315
▁wants	-2316
▁opp	-2317
▁bullet	-2318
▁stat	-2319
ular	-2320
▁moon	-2321
▁spir	-2322
▁tellin	-2323
▁killing	-2324
▁não	-2325
▁mê	-2326
▁prot	-2327
▁pan	-2328
▁spray	-2329
eth	-2330
▁chrome	-2331
ume	-2332
▁carry	-2333
▁across	-2334
lyn	-2335
ugs	-2336
▁jay	-2337
▁gucci	-2338
▁neigh	-2339
ums	-2340
▁welcome	-2341
zen	-2342
▁favor	-2343
▁supposed	-2344
▁says	-2345
▁van	-2346
▁tape	-2347
▁danger	-2348
ams	-2349
▁syst	-2350
▁dro	-2351
▁pal	-2352
▁killer	-2353
▁bir	-2354
▁conne	-2355
▁trippin	-2356
▁near	-2357
▁dust	-2358
▁“	-2359
▁cheese	-2360
▁dollars	-2361
▁whoa	-2362
▁wood	-2363
▁games	-2364
▁jesus	-2365
▁microph	-2366
▁lar	-2367
▁gimme	-2368
▁slap	-2369
rer	-2370
▁adv	-2371
esh	-2372
▁actin	-2373
▁nuts	-2374
▁rev	-2375
▁seat	-2376
▁keeps	-2377
▁ner	-2378
▁shows	-2379
▁doesn	-2380
▁vict	-2381
ican	-2382
▁dev	-2383
▁price	-2384
▁daw	-2385
▁breathe	-2386
▁faire	-2387
▁trees	-2388
dom	-2389
▁lit	-2390
▁cloud	-2391
repeat	-2392
▁screw	-2393
▁blame	-2394
▁twice	-2395
▁sitting	-2396
▁enter	-2397
▁sty	-2398
▁figure	-2399
▁watching	-2400
▁din	-2401
▁equ	-2402
▁mor	-2403
▁songs	-2404
▁brought	-2405
bal	-2406
ole	-2407
room	-2408
ned	-2409
▁gi	-2410
▁post	-2411
▁tru	-2412
ider	-2413
▁brook	-2414
▁kein	-2415
▁calling	-2416
▁key	-2417
▁system	-2418
▁sounds	-2419
▁non	-2420
▁ghost	-2421
▁psy	-2422
▁wal	-2423
▁cost	-2424
▁soldier	-2425
ids	-2426
▁dep	-2427
▁force	-2428
▁dom	-2429
▁holding	-2430
▁promise	-2431
▁smooth	-2432
▁raise	-2433
▁trouble	-2434
▁wrote	-2435
▁liquor	-2436
dies	-2437
▁maj	-2438
▁mod	-2439
▁guys	-2440
▁als	-2441
ety	-2442
ims	-2443
▁magic	-2444
▁broken	-2445
▁window	-2446
▁og	-2447
▁ban	-2448
▁dudes	-2449
▁tongue	-2450
ero	-2451
amp	-2452
▁nick	-2453
▁knees	-2454
▁choose	-2455
ital	-2456
▁50	-2457
▁cy	-2458
aaaa	-2459
iest	-2460
▁lif	-2461
core	-2462
ages	-2463
akes	-2464
ides	-2465
▁having	-2466
▁special	-2467
▁mothafuck	-2468
end	-2469
▁jed	-2470
▁trans	-2471
!!!	-2472
▁vision	-2473
."	-2474
lax	-2475
▁arr	-2476
▁inte	-2477
▁chillin	-2478
▁candy	-2479
▁hole	-2480
▁sight	-2481
med	-2482
▁north	-2483
▁search	-2484
▁answ	-2485
▁mike	-2486
face	-2487
▁butt	-2488
▁nast	-2489
▁standing	-2490
upt	-2491
▁rat	-2492
▁bullets	-2493
▁ow	-2494
▁gar	-2495
▁flav	-2496
▁jeans	-2497
▁spread	-2498
▁tv	-2499
▁pub	-2500
▁harder	-2501
gy	-2502
▁rules	-2503
ays	-2504
ories	-2505
▁ak	-2506
▁underground	-2507
▁rough	-2508
cht	-2509
col	-2510
▁wick	-2511
▁beast	-2512
gine	-2513
▁squad	-2514
▁ama	-2515
▁kit	-2516
▁apart	-2517
▁waitin	-2518
▁died	-2519
▁stun	-2520
▁folks	-2521
▁problems	-2522
ait	-2523
▁microphone	-2524
▁fix	-2525
▁ol	-2526
▁bite	-2527
▁mental	-2528
▁spark	-2529
▁fil	-2530
▁tough	-2531
▁upon	-2532
▁ven	-2533
▁keys	-2534
hood	-2535
▁fro	-2536
▁pockets	-2537
▁rappin	-2538
▁flash	-2539
▁vers	-2540
▁store	-2541
▁ris	-2542
▁intro	-2543
ney	-2544
▁spittin	-2545
py	-2546
▁même	-2547
▁sippin	-2548
▁holdin	-2549
▁platin	-2550
▁fu	-2551
▁spea	-2552
▁nation	-2553
▁walkin	-2554
▁children	-2555
ek	-2556
ives	-2557
▁hen	-2558
▁cake	-2559
ée	-2560
▁bent	-2561
▁nie	-2562
ery	-2563
▁chase	-2564
yal	-2565
▁(*	-2566
▁slide	-2567
▁ballin	-2568
▁acting	-2569
▁moves	-2570
▁hall	-2571
iling	-2572
▁relax	-2573
ya	-2574
▁meine	-2575
▁dogs	-2576
▁pants	-2577
ledge	-2578
▁aff	-2579
▁nights	-2580
▁--	-2581
▁sand	-2582
▁attention	-2583
rest	-2584
▁sexy	-2585
▁wer	-2586
gar	-2587
▁ir	-2588
▁steel	-2589
▁lonely	-2590
▁working	-2591
ros	-2592
▁cad	-2593
wh	-2594
▁insane	-2595
▁month	-2596
ried	-2597
▁raised	-2598
▁news	-2599
▁ko	-2600
▁records	-2601
▁nasty	-2602
▁limit	-2603
▁platinum	-2604
▁cow	-2605
▁digg	-2606
▁brooklyn	-2607
▁dime	-2608
▁safe	-2609
aire	-2610
▁extra	-2611
▁wrist	-2612
lich	-2613
▁remain	-2614
▁fiend	-2615
▁hatin	-2616
▁squee	-2617
▁sack	-2618
▁lyrical	-2619
down	-2620
▁blowin	-2621
▁lem	-2622
▁callin	-2623
▁.	-2624
roll	-2625
hn	-2626
▁doo	-2627
raid	-2628
▁bare	-2629
▁birth	-2630
aces	-2631
▁nose	-2632
ogn	-2633
'?	-2634
▁flex	-2635
par	-2636
uf	-2637
▁clim	-2638
▁meant	-2639
▁bottles	-2640
▁booty	-2641
▁seed	-2642
ging	-2643
▁komm	-2644
▁leaving	-2645
-1	-2646
▁recogn	-2647
alth	-2648
icide	-2649
▁compet	-2650
▁hist	-2651
▁nin	-2652
▁whether	-2653
▁tous	-2654
▁draw	-2655
ward	-2656
▁trigg	-2657
▁least	-2658
▁teeth	-2659
▁survive	-2660
▁simple	-2661
▁cru	-2662
▁become	-2663
▁chicken	-2664
ited	-2665
most	-2666
ott	-2667
▁ends	-2668
▁hill	-2669
▁noch	-2670
▁pimpin	-2671
ically	-2672
ye	-2673
vent	-2674
▁ré	-2675
▁group	-2676
▁fem	-2677
ér	-2678
▁dawg	-2679
ished	-2680
▁fer	-2681
ques	-2682
▁yellow	-2683
▁weap	-2684
▁lift	-2685
▁purple	-2686
:]	-2687
▁bum	-2688
▁cover	-2689
▁dropped	-2690
▁sans	-2691
cess	-2692
▁spirit	-2693
▁connect	-2694
▁grill	-2695
▁pu	-2696
utes	-2697
▁juice	-2698
▁hittin	-2699
▁wide	-2700
▁("	-2701
cs	-2702
▁compl	-2703
▁course	-2704
▁thro	-2705
▁kl	-2706
▁arms	-2707
▁bricks	-2708
▁jung	-2709
▁rum	-2710
2)	-2711
▁los	-2712
iving	-2713
utch	-2714
▁/	-2715
▁beg	-2716
ctor	-2717
how	-2718
▁contin	-2719
▁anybody	-2720
▁bein	-2721
olog	-2722
▁watchin	-2723
▁hor	-2724
▁movie	-2725
▁biz	-2726
▁path	-2727
vis	-2728
idge	-2729
ilt	-2730
▁match	-2731
▁waste	-2732
air	-2733
▁protect	-2734
▁gangst	-2735
▁looked	-2736
▁dun	-2737
▁groo	-2738
▁numb	-2739
▁addict	-2740
▁finally	-2741
bing	-2742
ints	-2743
▁fair	-2744
▁witness	-2745
▁jealous	-2746
lil	-2747
▁coca	-2748
▁pac	-2749
▁asked	-2750
*)	-2751
can	-2752
▁bey	-2753
▁queen	-2754
wood	-2755
▁laid	-2756
▁glo	-2757
▁destin	-2758
▁lives	-2759
▁havin	-2760
itude	-2761
▁bob	-2762
play	-2763
▁hello	-2764
▁ur	-2765
▁unless	-2766
eral	-2767
▁???	-2768
ters	-2769
▁loved	-2770
▁pill	-2771
ices	-2772
▁dar	-2773
ket	-2774
▁planet	-2775
ession	-2776
▁age	-2777
▁shame	-2778
▁pun	-2779
▁color	-2780
▁grave	-2781
har	-2782
▁cro	-2783
▁serious	-2784
ule	-2785
▁afraid	-2786
ipt	-2787
cks	-2788
",	-2789
ige	-2790
▁cous	-2791
▁jetzt	-2792
▁bien	-2793
▁gift	-2794
bye	-2795
▁wicked	-2796
unts	-2797
▁rhyth	-2798
?]	-2799
onde	-2800
▁tex	-2801
▁bend	-2802
▁sou	-2803
▁rapping	-2804
▁poor	-2805
▁situ	-2806
▁third	-2807
▁blaze	-2808
just	-2809
▁nos	-2810
▁shock	-2811
▁swall	-2812
▁lane	-2813
di	-2814
▁ap	-2815
▁toast	-2816
▁looks	-2817
▁mirror	-2818
ari	-2819
▁sag	-2820
ado	-2821
▁hour	-2822
▁flight	-2823
▁cos	-2824
▁label	-2825
teen	-2826
▁trap	-2827
▁40	-2828
talk	-2829
▁human	-2830
ments	-2831
▁slick	-2832
▁knowledge	-2833
aus	-2834
▁gent	-2835
inal	-2836
▁1:	-2837
▁building	-2838
▁punch	-2839
aul	-2840
ds	-2841
▁roof	-2842
▁rush	-2843
▁lovin	-2844
▁neg	-2845
▁deine	-2846
gue	-2847
▁balls	-2848
bra	-2849
▁pit	-2850
ified	-2851
▁vide	-2852
▁joke	-2853
▁fort	-2854
but	-2855
▁nich	-2856
▁pulled	-2857
▁skills	-2858
▁scar	-2859
▁major	-2860
▁gots	-2861
▁stacks	-2862
like	-2863
▁bell	-2864
▁faith	-2865
▁sont	-2866
▁mehr	-2867
▁action	-2868
▁enemies	-2869
▁sour	-2870
▁dum	-2871
▁empty	-2872
▁ils	-2873
▁puttin	-2874
▁needs	-2875
▁rele	-2876
cul	-2877
▁favorite	-2878
▁tur	-2879
▁race	-2880
star	-2881
▁amaz	-2882
▁tit	-2883
▁prep	-2884
▁happened	-2885
▁sich	-2886
▁rent	-2887
▁screaming	-2888
▁learned	-2889
itty	-2890
scr	-2891
estyle	-2892
▁dass	-2893
▁expect	-2894
▁glad	-2895
▁vill	-2896
▁soldiers	-2897
uce	-2898
▁gan	-2899
▁bab	-2900
▁bast	-2901
ured	-2902
▁bist	-2903
▁revol	-2904
▁order	-2905
▁san	-2906
▁isn	-2907
▁flat	-2908
▁2:	-2909
▁haha	-2910
▁swallow	-2911
form	-2912
▁strange	-2913
▁struggle	-2914
nder	-2915
▁tall	-2916
oute	-2917
▁beach	-2918
itches	-2919
▁cali	-2920
arent	-2921
ities	-2922
▁forgot	-2923
▁woo	-2924
▁mart	-2925
▁ohh	-2926
▁reality	-2927
▁almost	-2928
▁vol	-2929
▁rac	-2930
▁kann	-2931
je	-2932
▁loving	-2933
▁scratch	-2934
▁busy	-2935
▁doors	-2936
▁bustin	-2937
▁vor	-2938
ête	-2939
gal	-2940
▁worst	-2941
▁brains	-2942
▁gal	-2943
▁named	-2944
▁taught	-2945
▁joe	-2946
▁calm	-2947
aded	-2948
▁thangs	-2949
▁smash	-2950
era	-2951
▁date	-2952
▁jama	-2953
aw	-2954
▁sea	-2955
▁orig	-2956
girl	-2957
▁row	-2958
▁tow	-2959
bles	-2960
▁emce	-2961
▁suis	-2962
▁chains	-2963
sel	-2964
▁12	-2965
▁court	-2966
ggin	-2967
▁fail	-2968
▁crown	-2969
▁strapped	-2970
▁dome	-2971
▁chips	-2972
▁prison	-2973
▁answer	-2974
tle	-2975
▁suckers	-2976
▁bis	-2977
▁jeg	-2978
▁falling	-2979
▁poss	-2980
▁crit	-2981
▁alles	-2982
▁surpr	-2983
▁country	-2984
cre	-2985
▁bunch	-2986
▁jour	-2987
why	-2988
▁fur	-2989
▁explain	-2990
night	-2991
▁bodies	-2992
▁rhythm	-2993
ires	-2994
▁card	-2995
▁bills	-2996
▁ded	-2997
▁cub	-2998
cious	-2999
▁plenty	-3000
▁tag	-3001
▁hol	-3002
▁legs	-3003
▁mary	-3004
▁sucker	-3005
itten	-3006
▁blowing	-3007
▁cer	-3008
▁proud	-3009
▁hero	-3010
▁hungry	-3011
▁lame	-3012
▁minds	-3013
▁eh	-3014
lect	-3015
under	-3016
▁tree	-3017
▁va	-3018
▁nas	-3019
llen	-3020
être	-3021
▁role	-3022
▁kitchen	-3023
sl	-3024
ston	-3025
▁100	-3026
▁finish	-3027
▁fist	-3028
▁pressure	-3029
▁prove	-3030
fer	-3031
nes	-3032
▁hype	-3033
▁rule	-3034
▁neighbor	-3035
▁frontin	-3036
▁confus	-3037
▁av	-3038
▁escape	-3039
▁longer	-3040
▁recognize	-3041
isse	-3042
icated	-3043
▁pride	-3044
rence	-3045
▁mane	-3046
▁fifty	-3047
▁throat	-3048
▁val	-3049
▁max	-3050
▁pee	-3051
▁tun	-3052
nie	-3053
▁succ	-3054
▁anim	-3055
▁return	-3056
▁hi	-3057
uts	-3058
▁faces	-3059
▁hun	-3060
ky	-3061
▁op	-3062
eeee	-3063
▁naked	-3064
▁others	-3065
▁proper	-3066
▁butter	-3067
__	-3068
▁bou	-3069
▁hid	-3070
▁flame	-3071
ns	-3072
▁joint	-3073
▁bug	-3074
▁finna	-3075
▁pretend	-3076
▁toss	-3077
▁secret	-3078
respect	-3079
▁snow	-3080
▁hoo	-3081
▁sein	-3082
▁worse	-3083
mas	-3084
▁walked	-3085
ück	-3086
stant	-3087
▁birds	-3088
mi	-3089
▁wheel	-3090
ano	-3091
▁tar	-3092
▁schw	-3093
▁terror	-3094
ific	-3095
▁leavin	-3096
▁thir	-3097
itted	-3098
▁dann	-3099
▁appe	-3100
ians	-3101
▁bound	-3102
▁elle	-3103
▁clique	-3104
▁passion	-3105
▁lang	-3106
▁bi	-3107
▁indust	-3108
ites	-3109
▁realize	-3110
**	-3111
-4	-3112
▁quarter	-3113
▁girlfriend	-3114
ppin	-3115
▁ang	-3116
▁wine	-3117
▁1]	-3118
▁fau	-3119
▁defe	-3120
▁bay	-3121
▁range	-3122
ius	-3123
izzy	-3124
▁rien	-3125
▁travel	-3126
▁message	-3127
▁feelings	-3128
▁os	-3129
this	-3130
▁judge	-3131
▁cher	-3132
▁hating	-3133
kt	-3134
▁acc	-3135
▁honest	-3136
onic	-3137
▁sister	-3138
▁early	-3139
▁seeing	-3140
▁plot	-3141
▁dying	-3142
...)	-3143
▁enemy	-3144
gl	-3145
▁moms	-3146
▁table	-3147
▁loc	-3148
▁blunts	-3149
ival	-3150
asure	-3151
▁fingers	-3152
▁blocks	-3153
▁america	-3154
▁everytime	-3155
▁rug	-3156
▁flesh	-3157
▁rack	-3158
▁nowhere	-3159
.]	-3160
▁lam	-3161
▁hater	-3162
▁deck	-3163
▁share	-3164
▁cocaine	-3165
▁cab	-3166
▁anyway	-3167
bit	-3168
▁walls	-3169
▁rag	-3170
▁beyond	-3171
▁ayo	-3172
ism	-3173
▁brick	-3174
▁minutes	-3175
▁defin	-3176
▁sellin	-3177
▁stone	-3178
▁rot	-3179
▁ef	-3180
know	-3181
▁loves	-3182
▁sneak	-3183
▁kar	-3184
▁filled	-3185
▁church	-3186
▁cele	-3187
chie	-3188
well	-3189
▁sens	-3190
▁shad	-3191
▁shell	-3192
nah	-3193
▁lap	-3194
▁singing	-3195
▁trigger	-3196
ative	-3197
▁kickin	-3198
▁muthafuckin	-3199
▁solo	-3200
▁rose	-3201
net	-3202
▁history	-3203
ners	-3204
▁calif	-3205
▁ü	-3206
break	-3207
▁babe	-3208
▁twisted	-3209
ully	-3210
▁snitch	-3211
▁2]	-3212
▁fold	-3213
▁smart	-3214
▁slim	-3215
▁asking	-3216
▁triple	-3217
▁sort	-3218
▁coff	-3219
▁rocking	-3220
▁thre	-3221
ium	-3222
▁bree	-3223
▁buzz	-3224
▁spent	-3225
▁within	-3226
▁gib	-3227
▁polit	-3228
▁storm	-3229
▁whats	-3230
af	-3231
▁vest	-3232
▁beam	-3233
▁pops	-3234
ivin	-3235
more	-3236
chu	-3237
▁jones	-3238
▁dump	-3239
▁squeeze	-3240
▁snatch	-3241
▁offic	-3242
ok	-3243
▁shirt	-3244
▁tatt	-3245
▁spill	-3246
zi	-3247
edy	-3248
▁bags	-3249
▁stab	-3250
▁disrespect	-3251
▁missing	-3252
▁plans	-3253
▁pin	-3254
▁jock	-3255
▁passed	-3256
▁screamin	-3257
▁workin	-3258
roy	-3259
▁headed	-3260
▁collect	-3261
▁gangster	-3262
▁industry	-3263
▁plane	-3264
▁(2	-3265
▁mall	-3266
ès	-3267
▁lab	-3268
▁queens	-3269
▁ess	-3270
▁burning	-3271
▁snap	-3272
▁suff	-3273
hys	-3274
▁jewels	-3275
▁president	-3276
▁stash	-3277
▁famous	-3278
za	-3279
▁autom	-3280
▁code	-3281
pes	-3282
▁ske	-3283
▁studio	-3284
▁styles	-3285
▁wol	-3286
▁ears	-3287
▁position	-3288
▁freed	-3289
▁blessed	-3290
iiii	-3291
vern	-3292
wind	-3293
▁island	-3294
▁deg	-3295
ased	-3296
▁ges	-3297
▁dit	-3298
ester	-3299
▁tool	-3300
▁booth	-3301
▁shouldn	-3302
▁fiends	-3303
▁lover	-3304
▁remind	-3305
▁fish	-3306
▁purp	-3307
▁lying	-3308
▁iron	-3309
▁chuck	-3310
▁lim	-3311
▁blaz	-3312
▁closed	-3313
▁spitting	-3314
▁ber	-3315
▁public	-3316
▁imagine	-3317
▁drinkin	-3318
▁voc	-3319
▁page	-3320
idence	-3321
▁serve	-3322
▁wu	-3323
hant	-3324
▁also	-3325
▁pink	-3326
▁silly	-3327
gon	-3328
▁mask	-3329
dr	-3330
▁leben	-3331
ify	-3332
▁pad	-3333
▁ugly	-3334
▁celebr	-3335
▁view	-3336
▁noise	-3337
▁weather	-3338
▁cast	-3339
▁cheap	-3340
yes	-3341
kers	-3342
▁drum	-3343
▁fi	-3344
▁pha	-3345
▁vir	-3346
▁californ	-3347
▁ped	-3348
▁exist	-3349
▁plate	-3350
▁threw	-3351
▁atl	-3352
stop	-3353
▁auch	-3354
ida	-3355
▁cousin	-3356
▁toes	-3357
▁design	-3358
▁gain	-3359
▁rick	-3360
▁hollow	-3361
iter	-3362
▁hella	-3363
bar	-3364
▁fal	-3365
▁jim	-3366
▁frame	-3367
big	-3368
▁feds	-3369
▁keepin	-3370
▁weiß	-3371
▁grew	-3372
iles	-3373
▁aver	-3374
▁clouds	-3375
▁concer	-3376
▁base	-3377
ior	-3378
▁mé	-3379
▁nap	-3380
▁19	-3381
▁letter	-3382
▁doe	-3383
▁mention	-3384
▁lex	-3385
▁dice	-3386
▁crash	-3387
▁cart	-3388
▁hoping	-3389
▁ger	-3390
▁metal	-3391
▁dear	-3392
▁bun	-3393
▁peel	-3394
ression	-3395
▁bubble	-3396
pton	-3397
got	-3398
▁whis	-3399
▁colle	-3400
ör	-3401
▁naw	-3402
▁knife	-3403
▁trapped	-3404
ato	-3405
▁scre	-3406
agne	-3407
▁opt	-3408
shine	-3409
▁projects	-3410
▁quiet	-3411
▁q	-3412
sha	-3413
▁stret	-3414
ted	-3415
ury	-3416
hell	-3417
▁success	-3418
any	-3419
▁suit	-3420
▁freedom	-3421
▁haven	-3422
▁artist	-3423
▁bangin	-3424
fa	-3425
!!!!	-3426
ob	-3427
▁lin	-3428
")	-3429
▁sau	-3430
▁drinking	-3431
ex	-3432
ceed	-3433
▁angel	-3434
▁200	-3435
▁cig	-3436
▁freaky	-3437
sey	-3438
▁rims	-3439
▁govern	-3440
▁starts	-3441
▁mans	-3442
▁appro	-3443
▁field	-3444
▁youth	-3445
▁places	-3446
▁whenever	-3447
▁fais	-3448
eter	-3449
▁situation	-3450
▁chose	-3451
▁selling	-3452
▁..	-3453
ante	-3454
▁hug	-3455
▁boun	-3456
▁wise	-3457
quer	-3458
ship	-3459
▁gee	-3460
▁schl	-3461
▁quite	-3462
▁knowing	-3463
nde	-3464
▁rings	-3465
▁ener	-3466
▁eating	-3467
,"	-3468
▁hustler	-3469
▁breaking	-3470
die	-3471
▁phys	-3472
▁clips	-3473
lla	-3474
▁prince	-3475
▁hä	-3476
oi	-3477
▁closer	-3478
lers	-3479
ées	-3480
dest	-3481
real	-3482
▁gam	-3483
wa	-3484
iday	-3485
▁tes	-3486
▁cred	-3487
▁loot	-3488
▁dangerous	-3489
cut	-3490
▁ri	-3491
▁pictures	-3492
▁gor	-3493
▁homey	-3494
▁bye	-3495
▁nuttin	-3496
▁surround	-3497
▁daughter	-3498
▁fagg	-3499
iel	-3500
▁poet	-3501
▁shall	-3502
▁droppin	-3503
bang	-3504
▁dece	-3505
▁pure	-3506
▁kicks	-3507
▁somewhere	-3508
imp	-3509
asse	-3510
▁groove	-3511
hold	-3512
▁kush	-3513
▁aux	-3514
▁daily	-3515
▁immer	-3516
▁ahh	-3517
▁lip	-3518
▁pig	-3519
▁wä	-3520
▁louis	-3521
▁gats	-3522
▁names	-3523
▁putting	-3524
▁writing	-3525
▁lack	-3526
▁slam	-3527
▁forty	-3528
car	-3529
▁tot	-3530
▁pair	-3531
ural	-3532
▁exact	-3533
appe	-3534
vous	-3535
▁sport	-3536
▁cd	-3537
▁average	-3538
▁oce	-3539
▁california	-3540
▁wings	-3541
▁legend	-3542
hal	-3543
ooo	-3544
▁oooh	-3545
')	-3546
▁proof	-3547
▁greatest	-3548
▁vu	-3549
▁stare	-3550
ray	-3551
▁broads	-3552
▁crimin	-3553
▁leather	-3554
she	-3555
▁throwin	-3556
▁toe	-3557
ico	-3558
bers	-3559
▁swim	-3560
▁tricks	-3561
▁fighting	-3562
▁fifth	-3563
gan	-3564
▁cham	-3565
▁stopped	-3566
▁obs	-3567
▁tax	-3568
▁coo	-3569
▁mort	-3570
▁large	-3571
▁players	-3572
▁blew	-3573
▁doctor	-3574
▁needed	-3575
arm	-3576
itive	-3577
▁drown	-3578
▁regard	-3579
▁original	-3580
ami	-3581
ering	-3582
▁college	-3583
▁toi	-3584
▁size	-3585
▁given	-3586
▁killers	-3587
▁bail	-3588
ding	-3589
▁ram	-3590
▁boogie	-3591
▁wave	-3592
▁über	-3593
▁deserve	-3594
▁craw	-3595
post	-3596
▁hours	-3597
▁sugar	-3598
▁holy	-3599
▁slugs	-3600
ris	-3601
ayin	-3602
▁tank	-3603
▁teacher	-3604
▁inno	-3605
▁strap	-3606
▁breakin	-3607
ieder	-3608
ided	-3609
▁knowin	-3610
▁bumpin	-3611
ision	-3612
▁aber	-3613
▁fick	-3614
▁warm	-3615
talking	-3616
▁ease	-3617
▁effect	-3618
▁facts	-3619
cra	-3620
▁parent	-3621
▁là	-3622
▁faut	-3623
▁hardcore	-3624
▁standin	-3625
▁fant	-3626
miss	-3627
rect	-3628
▁comb	-3629
▁crush	-3630
gic	-3631
▁convers	-3632
?!	-3633
baby	-3634
▁horn	-3635
▁jungle	-3636
▁thirty	-3637
▁elev	-3638
▁neighborhood	-3639
▁bones	-3640
ature	-3641
▁maintain	-3642
▁mayne	-3643
▁weapon	-3644
▁'9	-3645
▁tele	-3646
▁built	-3647
▁hearts	-3648
hael	-3649
▁attitude	-3650
ture	-3651
ument	-3652
gging	-3653
▁trash	-3654
▁hustlin	-3655
▁mel	-3656
▁bond	-3657
▁drank	-3658
▁stomach	-3659
▁port	-3660
▁intell	-3661
▁boots	-3662
▁flavor	-3663
▁sav	-3664
▁24	-3665
nen	-3666
▁raz	-3667
▁sink	-3668
over	-3669
▁(?)	-3670
▁lee	-3671
▁pant	-3672
▁cau	-3673
▁present	-3674
een	-3675
▁dry	-3676
▁rom	-3677
▁sharp	-3678
▁ray	-3679
▁askin	-3680
▁plain	-3681
▁homeboy	-3682
rel	-3683
▁model	-3684
icious	-3685
anta	-3686
bitch	-3687
▁pills	-3688
▁skill	-3689
astic	-3690
▁listening	-3691
▁fate	-3692
ki	-3693
▁vac	-3694
▁muthafucka	-3695
▁choke	-3696
▁babies	-3697
▁lesson	-3698
▁bling	-3699
off	-3700
joy	-3701
▁ant	-3702
▁text	-3703
▁[?]	-3704
▁goodbye	-3705
▁techn	-3706
ops	-3707
▁yuh	-3708
sters	-3709
▁emot	-3710
▁gangstas	-3711
woo	-3712
▁snoop	-3713
▁losing	-3714
oy	-3715
▁scheiß	-3716
▁questions	-3717
▁dare	-3718
▁kings	-3719
▁choice	-3720
▁meat	-3721
iction	-3722
▁barely	-3723
▁champagne	-3724
▁coupe	-3725
▁rolled	-3726
iment	-3727
▁euch	-3728
atched	-3729
mr	-3730
ashed	-3731
▁strike	-3732
lie	-3733
▁texas	-3734
▁excuse	-3735
ita	-3736
▁kan	-3737
▁dressed	-3738
load	-3739
▁guar	-3740
▁aiy	-3741
▁grass	-3742
▁foul	-3743
▁sir	-3744
ères	-3745
▁wow	-3746
▁tan	-3747
▁vibe	-3748
▁ry	-3749
▁ship	-3750
nam	-3751
▁ago	-3752
▁flag	-3753
▁mics	-3754
▁complet	-3755
▁gram	-3756
bling	-3757
▁beer	-3758
▁gentle	-3759
▁hurts	-3760
▁hammer	-3761
▁dub	-3762
▁crying	-3763
▁18	-3764
▁keeping	-3765
▁popping	-3766
nel	-3767
▁cum	-3768
▁demand	-3769
say	-3770
▁hes	-3771
▁competition	-3772
▁cuts	-3773
▁speaking	-3774
▁thanks	-3775
▁lust	-3776
▁turning	-3777
▁pipe	-3778
▁throwing	-3779
▁wird	-3780
▁jewel	-3781
▁stain	-3782
ored	-3783
▁viv	-3784
▁smoked	-3785
till	-3786
nigga	-3787
▁wieder	-3788
din	-3789
▁lemme	-3790
▁abs	-3791
itate	-3792
▁admit	-3793
▁winter	-3794
▁destroy	-3795
lem	-3796
pet	-3797
pac	-3798
▁tony	-3799
▁eatin	-3800
▁chasing	-3801
uc	-3802
gra	-3803
ibe	-3804
▁waist	-3805
▁hangin	-3806
▁uncle	-3807
▁cris	-3808
▁cult	-3809
▁due	-3810
▁boat	-3811
▁pract	-3812
shot	-3813
▁skip	-3814
▁sel	-3815
vered	-3816
▁thru	-3817
▁hotter	-3818
▁tuck	-3819
▁chris	-3820
▁frank	-3821
▁gener	-3822
▁older	-3823
set	-3824
▁ignor	-3825
▁shook	-3826
zer	-3827
▁30	-3828
▁freeze	-3829
▁charge	-3830
▁showed	-3831
bi	-3832
xx	-3833
▁held	-3834
▁elect	-3835
▁forgive	-3836
mar	-3837
▁bath	-3838
gt	-3839
▁dawn	-3840
▁government	-3841
▁murde	-3842
▁ocean	-3843
▁16	-3844
▁ep	-3845
▁shootin	-3846
rage	-3847
house	-3848
mis	-3849
▁river	-3850
▁flying	-3851
▁golden	-3852
▁shoulda	-3853
aly	-3854
table	-3855
▁lung	-3856
▁pounds	-3857
gas	-3858
ching	-3859
▁bringing	-3860
▁tie	-3861
▁owe	-3862
▁michael	-3863
▁certain	-3864
bie	-3865
▁guer	-3866
ru	-3867
▁enjoy	-3868
▁bloody	-3869
rock	-3870
▁lau	-3871
bage	-3872
▁bringin	-3873
▁mcs	-3874
▁sus	-3875
▁kur	-3876
▁stock	-3877
ko	-3878
two	-3879
▁tone	-3880
▁steps	-3881
iert	-3882
▁james	-3883
▁nu	-3884
▁suicide	-3885
ito	-3886
▁sunshine	-3887
▁holly	-3888
ras	-3889
oles	-3890
▁glow	-3891
▁aiyyo	-3892
▁fallin	-3893
sa	-3894
▁resp	-3895
▁machine	-3896
▁shining	-3897
illac	-3898
▁bury	-3899
▁season	-3900
▁tripping	-3901
▁motion	-3902
▁geh	-3903
▁anyone	-3904
▁bei	-3905
▁crus	-3906
▁crunk	-3907
▁video	-3908
▁script	-3909
▁shoulder	-3910
ered	-3911
▁monster	-3912
pro	-3913
▁woah	-3914
▁settle	-3915
▁paul	-3916
▁horse	-3917
they	-3918
▁bron	-3919
▁rude	-3920
▁miles	-3921
▁geor	-3922
ashing	-3923
look	-3924
test	-3925
▁occ	-3926
▁bridge	-3927
▁bec	-3928
▁gard	-3929
▁mu	-3930
▁chi	-3931
▁map	-3932
ivate	-3933
▁sword	-3934
▁goddamn	-3935
▁cannot	-3936
zie	-3937
▁moun	-3938
▁disc	-3939
▁weil	-3940
▁pieces	-3941
▁mec	-3942
li	-3943
▁dinner	-3944
▁popped	-3945
▁silence	-3946
▁blo	-3947
ité	-3948
▁weg	-3949
▁chat	-3950
▁rubber	-3951
▁uptown	-3952
▁mami	-3953
▁aight	-3954
▁months	-3955
▁release	-3956
hale	-3957
▁crooked	-3958
▁sleeping	-3959
▁product	-3960
hl	-3961
▁bee	-3962
▁repl	-3963
▁afric	-3964
▁breeze	-3965
gel	-3966
▁jus	-3967
▁bush	-3968
ser	-3969
▁odd	-3970
ili	-3971
▁often	-3972
▁nature	-3973
▁chronic	-3974
fully	-3975
▁grad	-3976
▁blown	-3977
▁written	-3978
▁army	-3979
irs	-3980
▁fash	-3981
▁woke	-3982
▁lucky	-3983
▁southside	-3984
▁tee	-3985
ager	-3986
▁fran	-3987
istic	-3988
▁geht	-3989
hole	-3990
▁dur	-3991
▁blues	-3992
▁checks	-3993
▁iss	-3994
▁windows	-3995
▁riches	-3996
▁bam	-3997
▁sund	-3998
▁sipping	-3999
▁turns	-4000
▁streng	-4001
▁violence	-4002
five	-4003
▁holler	-4004
▁note	-4005
▁psych	-4006
▁missin	-4007
▁focused	-4008
▁belong	-4009
▁except	-4010
▁dash	-4011
▁wax	-4012
▁kicked	-4013
▁notice	-4014
ente	-4015
▁mixed	-4016
▁happens	-4017
-2	-4018
▁earn	-4019
▁drip	-4020
▁ugh	-4021
▁holes	-4022
▁signs	-4023
▁pullin	-4024
▁durch	-4025
▁seein	-4026
▁circle	-4027
▁faster	-4028
▁dod	-4029
▁wid	-4030
▁sniff	-4031
▁missed	-4032
▁automatic	-4033
▁zum	-4034
▁exper	-4035
▁slave	-4036
▁introdu	-4037
▁beginning	-4038
▁leaves	-4039
kk	-4040
▁compton	-4041
▁hitting	-4042
▁bor	-4043
▁yard	-4044
▁deeper	-4045
▁laws	-4046
▁drinks	-4047
▁mood	-4048
itter	-4049
▁bear	-4050
▁guard	-4051
▁hanging	-4052
▁revolution	-4053
----	-4054
box	-4055
vid	-4056
otha	-4057
icate	-4058
▁victim	-4059
▁relig	-4060
▁constant	-4061
iger	-4062
▁cards	-4063
▁weeke	-4064
▁packed	-4065
xy	-4066
▁flu	-4067
ressed	-4068
▁cadillac	-4069
▁scra	-4070
▁pens	-4071
▁burnin	-4072
ham	-4073
▁circ	-4074
▁tune	-4075
▁based	-4076
▁norm	-4077
▁pool	-4078
▁lotta	-4079
▁wearing	-4080
▁square	-4081
imm	-4082
▁thin	-4083
▁floss	-4084
hip	-4085
jours	-4086
▁american	-4087
▁common	-4088
▁bastard	-4089
ville	-4090
▁pissed	-4091
port	-4092
▁joy	-4093
▁wak	-4094
▁twel	-4095
▁energy	-4096
▁rus	-4097
▁schon	-4098
▁avo	-4099
▁grey	-4100
▁talent	-4101
selves	-4102
▁shady	-4103
▁camp	-4104
▁toujours	-4105
▁finished	-4106
▁yay	-4107
▁poison	-4108
▁shooting	-4109
▁gro	-4110
ivers	-4111
kn	-4112
inger	-4113
lev	-4114
▁ces	-4115
▁fellas	-4116
▁gay	-4117
▁oder	-4118
▁whips	-4119
▁health	-4120
▁deliver	-4121
por	-4122
▁aye	-4123
▁forth	-4124
▁souls	-4125
▁monde	-4126
bby	-4127
ived	-4128
▁pushin	-4129
▁amazing	-4130
ode	-4131
▁veux	-4132
doo	-4133
▁las	-4134
▁insp	-4135
▁angels	-4136
▁fet	-4137
wards	-4138
▁purpose	-4139
▁steppin	-4140
▁complete	-4141
▁calls	-4142
▁gives	-4143
▁stole	-4144
▁spell	-4145
▁stayed	-4146
cially	-4147
▁keith	-4148
▁whoever	-4149
▁villain	-4150
▁parents	-4151
▁stoppin	-4152
▁chilling	-4153
▁hyp	-4154
▁magn	-4155
▁zo	-4156
ield	-4157
rate	-4158
tains	-4159
▁wayne	-4160
lu	-4161
stic	-4162
▁direct	-4163
tered	-4164
▁temps	-4165
▁shakin	-4166
▁wheels	-4167
▁support	-4168
crete	-4169
▁aud	-4170
▁dop	-4171
▁vin	-4172
▁knocked	-4173
ighs	-4174
▁instr	-4175
▁baddest	-4176
▁dim	-4177
▁hast	-4178
▁zeit	-4179
▁betta	-4180
▁slippin	-4181
.'	-4182
amin	-4183
▁cond	-4184
▁rage	-4185
▁reve	-4186
-5	-4187
▁kool	-4188
▁natural	-4189
▁darkness	-4190
ira	-4191
▁crook	-4192
pie	-4193
▁wra	-4194
every	-4195
▁rece	-4196
▁fashion	-4197
▁bop	-4198
▁vib	-4199
▁stepped	-4200
hest	-4201
▁became	-4202
▁driving	-4203
▁ka	-4204
word	-4205
gest	-4206
inis	-4207
▁mex	-4208
▁realest	-4209
▁simp	-4210
▁belly	-4211
▁lat	-4212
count	-4213
▁mail	-4214
ises	-4215
▁ate	-4216
▁knockin	-4217
▁jaw	-4218
ala	-4219
▁yup	-4220
▁leur	-4221
▁camera	-4222
master	-4223
▁props	-4224
▁baller	-4225
▁sample	-4226
▁terr	-4227
▁dropping	-4228
▁strength	-4229
▁slug	-4230
▁chedd	-4231
▁dancing	-4232
▁80	-4233
▁whack	-4234
▁flippin	-4235
kill	-4236
▁cann	-4237
▁mult	-4238
▁animal	-4239
▁lately	-4240
▁complain	-4241
ali	-4242
▁amb	-4243
▁ounce	-4244
▁commun	-4245
▁flames	-4246
▁peu	-4247
▁welt	-4248
▁truly	-4249
▁jamais	-4250
▁difference	-4251
▁3:	-4252
acher	-4253
▁curse	-4254
▁layin	-4255
▁rewind	-4256
▁showin	-4257
▁sous	-4258
▁mister	-4259
▁shadow	-4260
nded	-4261
▁jah	-4262
▁serv	-4263
▁thunder	-4264
▁exactly	-4265
ilin	-4266
illes	-4267
▁loaded	-4268
▁cheddar	-4269
▁continue	-4270
nna	-4271
wide	-4272
▁lass	-4273
▁mode	-4274
▁freaks	-4275
▁priest	-4276
▁memories	-4277
▁loss	-4278
▁afford	-4279
ister	-4280
▁dot	-4281
▁spee	-4282
hi	-4283
▁christmas	-4284
▁sto	-4285
▁import	-4286
▁oppos	-4287
▁tattoo	-4288
▁chief	-4289
▁keine	-4290
mal	-4291
▁route	-4292
▁seeds	-4293
ando	-4294
▁bucks	-4295
▁budd	-4296
sed	-4297
▁hahaha	-4298
▁15	-4299
yyyy	-4300
▁nightma	-4301
▁mines	-4302
▁score	-4303
▁pulling	-4304
ount	-4305
▁ooo	-4306
▁philly	-4307
▁threat	-4308
▁mash	-4309
▁jumped	-4310
▁plastic	-4311
▁inst	-4312
▁signed	-4313
▁twelve	-4314
▁chew	-4315
▁background	-4316
▁copy	-4317
▁vous	-4318
▁satis	-4319
ju	-4320
▁approach	-4321
▁ont	-4322
▁wig	-4323
ility	-4324
▁stomp	-4325
hm	-4326
▁lyin	-4327
▁stro	-4328
▁numbers	-4329
▁perform	-4330
▁thirst	-4331
ardon	-4332
▁alot	-4333
▁apple	-4334
▁ace	-4335
cuz	-4336
boys	-4337
rend	-4338
▁mmm	-4339
▁conce	-4340
▁dimes	-4341
▁glocks	-4342
iti	-4343
▁swang	-4344
ples	-4345
▁jag	-4346
▁maf	-4347
ators	-4348
▁able	-4349
▁math	-4350
▁bid	-4351
▁doc	-4352
▁mars	-4353
▁pause	-4354
▁tête	-4355
▁fault	-4356
▁monkey	-4357
▁entertain	-4358
inted	-4359
▁host	-4360
▁nichts	-4361
rais	-4362
▁alc	-4363
▁fir	-4364
▁sheets	-4365
▁mig	-4366
▁honor	-4367
plex	-4368
▁freestyle	-4369
▁jun	-4370
imate	-4371
▁plant	-4372
▁mistake	-4373
▁personal	-4374
leep	-4375
▁hips	-4376
iled	-4377
check	-4378
▁classic	-4379
▁seh	-4380
ni	-4381
▁beep	-4382
éta	-4383
tell	-4384
▁chee	-4385
▁satan	-4386
▁emcees	-4387
▁memory	-4388
▁meaning	-4389
▁confused	-4390
▁hustlers	-4391
▁grade	-4392
▁bother	-4393
dro	-4394
bst	-4395
▁reminis	-4396
▁soci	-4397
▁dyin	-4398
▁jord	-4399
▁ali	-4400
▁fis	-4401
board	-4402
▁bombs	-4403
▁addicted	-4404
▁allow	-4405
si	-4406
▁snake	-4407
rd	-4408
▁phil	-4409
▁climb	-4410
od	-4411
ét	-4412
ension	-4413
▁criminal	-4414
▁speakers	-4415
▁likes	-4416
▁deadly	-4417
▁forward	-4418
nch	-4419
▁net	-4420
▁sale	-4421
▁throne	-4422
▁laughing	-4423
zin	-4424
▁concrete	-4425
▁oper	-4426
▁rebel	-4427
▁accept	-4428
oc	-4429
put	-4430
beat	-4431
▁whatcha	-4432
elle	-4433
▁ny	-4434
list	-4435
▁gin	-4436
▁gle	-4437
▁ga	-4438
oned	-4439
▁cuff	-4440
▁sais	-4441
▁macht	-4442
▁violent	-4443
olved	-4444
▁schre	-4445
▁bord	-4446
▁cute	-4447
▁hurry	-4448
▁spots	-4449
▁wrap	-4450
blin	-4451
▁conta	-4452
▁crews	-4453
▁hollywood	-4454
lock	-4455
▁vom	-4456
▁disco	-4457
▁picked	-4458
▁junk	-4459
▁mayn	-4460
▁moved	-4461
▁remix	-4462
phone	-4463
▁dues	-4464
▁cruis	-4465
▁anymore	-4466
▁drops	-4467
▁credit	-4468
ined	-4469
▁hah	-4470
▁coat	-4471
▁ward	-4472
▁destiny	-4473
0,	-4474
▁bentley	-4475
take	-4476
▁equal	-4477
▁foes	-4478
▁desert	-4479
2]	-4480
▁status	-4481
▁westside	-4482
esterday	-4483
▁pardon	-4484
see	-4485
▁phot	-4486
▁mercy	-4487
sn	-4488
ohol	-4489
▁assass	-4490
▁jumpin	-4491
ales	-4492
▁gem	-4493
▁regret	-4494
▁stretch	-4495
▁cu	-4496
▁wealth	-4497
▁weekend	-4498
▁imm	-4499
▁medic	-4500
▁lunch	-4501
▁surprise	-4502
west	-4503
▁kle	-4504
pping	-4505
▁mont	-4506
▁sacr	-4507
▁lived	-4508
▁trill	-4509
pack	-4510
▁haw	-4511
▁verses	-4512
▁taken	-4513
▁visit	-4514
▁slowly	-4515
▁??	-4516
aced	-4517
▁shoe	-4518
▁pitch	-4519
ban	-4520
▁pip	-4521
▁yesterday	-4522
▁sang	-4523
▁crip	-4524
rets	-4525
▁dutch	-4526
keep	-4527
when	-4528
▁stu	-4529
▁chevy	-4530
▁casket	-4531
uhh	-4532
▁ren	-4533
▁partner	-4534
▁flick	-4535
▁skinny	-4536
▁peoples	-4537
met	-4538
su	-4539
walk	-4540
▁rare	-4541
▁hopin	-4542
▁kicking	-4543
▁rab	-4544
▁showing	-4545
▁kim	-4546
appear	-4547
▁couch	-4548
icy	-4549
▁inde	-4550
▁demons	-4551
▁speech	-4552
▁dreaming	-4553
tt	-4554
bow	-4555
hem	-4556
qui	-4557
▁chin	-4558
▁shades	-4559
▁balling	-4560
én	-4561
▁eas	-4562
▁tat	-4563
▁ding	-4564
▁eine	-4565
▁link	-4566
▁glory	-4567
▁rê	-4568
rrrr	-4569
▁magaz	-4570
▁på	-4571
▁milk	-4572
▁mater	-4573
▁screen	-4574
▁nervous	-4575
▁breaks	-4576
top	-4577
▁career	-4578
▁ken	-4579
book	-4580
▁cel	-4581
▁station	-4582
▁cus	-4583
▁wipe	-4584
▁sticky	-4585
▁kam	-4586
▁bleib	-4587
▁pep	-4588
▁domin	-4589
▁gros	-4590
▁pear	-4591
▁ses	-4592
whoa	-4593
▁ayy	-4594
▁faded	-4595
▁smith	-4596
vious	-4597
▁gear	-4598
):	-4599
mc	-4600
irts	-4601
ware	-4602
▁clubs	-4603
fection	-4604
▁sleepin	-4605
▁speakin	-4606
▁jackson	-4607
▁muthafuckas	-4608
▁inch	-4609
▁slay	-4610
▁cruise	-4611
▁illest	-4612
▁psycho	-4613
rees	-4614
▁prec	-4615
▁friday	-4616
▁hardest	-4617
▁mistakes	-4618
▁prepared	-4619
▁ki	-4620
▁rolls	-4621
scratch	-4622
ram	-4623
ller	-4624
▁hmm	-4625
▁nic	-4626
▁simply	-4627
▁touched	-4628
rophe	-4629
▁dise	-4630
▁grin	-4631
▁doom	-4632
▁ouais	-4633
▁supre	-4634
▁chocol	-4635
▁shy	-4636
▁pace	-4637
▁grain	-4638
▁mug	-4639
▁plat	-4640
▁foreign	-4641
aaa	-4642
▁deny	-4643
▁mens	-4644
▁11	-4645
▁py	-4646
▁center	-4647
▁invest	-4648
▁stories	-4649
▁caps	-4650
dig	-4651
▁lear	-4652
▁blank	-4653
aches	-4654
▁mixt	-4655
▁1,	-4656
▁para	-4657
▁cocked	-4658
ffic	-4659
▁loo	-4660
▁tas	-4661
▁shan	-4662
▁stink	-4663
▁edge	-4664
▁verbal	-4665
tang	-4666
▁wishing	-4667
▁beauty	-4668
ura	-4669
thr	-4670
▁ras	-4671
▁gods	-4672
▁laying	-4673
▁lettin	-4674
▁martin	-4675
pecially	-4676
▁lan	-4677
▁mud	-4678
▁patient	-4679
cuss	-4680
izzle	-4681
▁mira	-4682
▁flock	-4683
▁pushing	-4684
▁wisdom	-4685
▁)	-4686
▁eag	-4687
▁letting	-4688
wor	-4689
▁wiz	-4690
▁tec	-4691
▁beha	-4692
▁grace	-4693
▁royal	-4694
▁fully	-4695
▁mornin	-4696
fen	-4697
ulous	-4698
▁area	-4699
pha	-4700
gang	-4701
▁cryin	-4702
▁kö	-4703
life	-4704
▁cube	-4705
▁lovely	-4706
▁relation	-4707
itz	-4708
▁fü	-4709
▁coup	-4710
▁sunday	-4711
▁seconds	-4712
bur	-4713
▁biggie	-4714
love	-4715
▁chos	-4716
▁married	-4717
ries	-4718
▁zip	-4719
▁habit	-4720
▁tub	-4721
▁final	-4722
iven	-4723
▁seas	-4724
▁books	-4725
▁rounds	-4726
▁breathing	-4727
moi	-4728
▁viel	-4729
▁blink	-4730
▁demon	-4731
▁float	-4732
▁dread	-4733
▁drivin	-4734
otic	-4735
▁among	-4736
hern	-4737
éc	-4738
mph	-4739
▁dedicated	-4740
band	-4741
▁jane	-4742
▁lungs	-4743
▁colors	-4744
▁ceiling	-4745
.)	-4746
▁wash	-4747
▁paris	-4748
▁chem	-4749
▁span	-4750
▁reign	-4751
▁muh	-4752
▁lied	-4753
run	-4754
umble	-4755
▁practice	-4756
▁plug	-4757
▁entre	-4758
▁potent	-4759
▁thuggin	-4760
▁het	-4761
▁prime	-4762
▁separ	-4763
▁wherever	-4764
▁jeep	-4765
▁palm	-4766
▁sober	-4767
▁infin	-4768
▁blows	-4769
raph	-4770
tern	-4771
▁sem	-4772
▁board	-4773
▁asleep	-4774
▁hearing	-4775
▁movement	-4776
▁wolf	-4777
▁miami	-4778
-9	-4779
▁pole	-4780
▁cage	-4781
▁nowad	-4782
▁seats	-4783
ational	-4784
▁strict	-4785
kr	-4786
▁veins	-4787
dj	-4788
clock	-4789
▁corr	-4790
▁whose	-4791
▁harlem	-4792
▁proceed	-4793
▁peeps	-4794
▁reppin	-4795
yea	-4796
iste	-4797
▁ego	-4798
sen	-4799
▁flos	-4800
▁sean	-4801
▁thou	-4802
▁zero	-4803
▁stunt	-4804
▁chair	-4805
mos	-4806
▁prov	-4807
▁allah	-4808
▁pou	-4809
msayin	-4810
▁shinin	-4811
▁prepare	-4812
iggy	-4813
▁être	-4814
▁etern	-4815
▁fred	-4816
mel	-4817
▁21	-4818
▁hated	-4819
▁stopping	-4820
▁backwards	-4821
uk	-4822
▁een	-4823
▁searching	-4824
lor	-4825
vais	-4826
▁lots	-4827
..."	-4828
▁swis	-4829
▁shr	-4830
▁flood	-4831
▁myster	-4832
▁chocolate	-4833
aph	-4834
▁deb	-4835
▁sucka	-4836
▁swift	-4837
▁refuse	-4838
▁shower	-4839
▁growing	-4840
ßen	-4841
▁gibt	-4842
▁jeder	-4843
iac	-4844
epend	-4845
▁belt	-4846
▁phat	-4847
▁quart	-4848
boom	-4849
dden	-4850
▁kin	-4851
usion	-4852
▁thighs	-4853
▁tho	-4854
▁gate	-4855
▁supreme	-4856
▁nowadays	-4857
gged	-4858
▁depe	-4859
▁polo	-4860
▁teen	-4861
▁appre	-4862
▁corners	-4863
▁thrill	-4864
▁birthday	-4865
▁using	-4866
▁chasin	-4867
▁disappear	-4868
▁hotel	-4869
▁melo	-4870
▁porn	-4871
atches	-4872
▁zie	-4873
▁milit	-4874
▁anywhere	-4875
▁kil	-4876
▁alcohol	-4877
▁usually	-4878
ffe	-4879
▁herb	-4880
▁millions	-4881
uct	-4882
▁drag	-4883
▁dial	-4884
▁pred	-4885
▁starting	-4886
gram	-4887
work	-4888
▁sudden	-4889
mur	-4890
▁rider	-4891
▁sig	-4892
▁shed	-4893
▁homes	-4894
▁patience	-4895
▁image	-4896
bes	-4897
iced	-4898
▁incred	-4899
▁praise	-4900
ral	-4901
aret	-4902
▁especially	-4903
fast	-4904
▁ceux	-4905
▁bronx	-4906
▁'8	-4907
▁så	-4908
▁socks	-4909
▁gutter	-4910
uzz	-4911
▁han	-4912
▁virgin	-4913
chet	-4914
▁grim	-4915
▁trade	-4916
▁spliff	-4917
▁stones	-4918
▁spring	-4919
utsch	-4920
god	-4921
▁cust	-4922
berry	-4923
▁haben	-4924
▁singin	-4925
▁rhyming	-4926
▁official	-4927
▁ici	-4928
proof	-4929
▁imma	-4930
▁inner	-4931
▁stuntin	-4932
▁brings	-4933
▁posse	-4934
cil	-4935
▁gy	-4936
▁ult	-4937
▁parad	-4938
sup	-4939
▁sta	-4940
▁jerk	-4941
▁shoulders	-4942
▁panties	-4943
▁shotgun	-4944
▁faggot	-4945
▁intellig	-4946
▁tail	-4947
▁organ	-4948
▁desp	-4949
▁haze	-4950
▁mile	-4951
▁target	-4952
▁gau	-4953
isch	-4954
▁oak	-4955
▁staying	-4956
ido	-4957
sty	-4958
▁kha	-4959
▁punks	-4960
▁strang	-4961
▁hou	-4962
▁scen	-4963
▁react	-4964
▁spoke	-4965
▁wondering	-4966
▁geld	-4967
▁chump	-4968
▁tooth	-4969
oooooooo	-4970
▁fightin	-4971
▁distance	-4972
▁como	-4973
▁falls	-4974
▁dancin	-4975
▁jou	-4976
ders	-4977
stood	-4978
▁cass	-4979
▁cong	-4980
▁curb	-4981
▁folk	-4982
▁busting	-4983
chin	-4984
▁correct	-4985
aged	-4986
▁culture	-4987
▁science	-4988
▁lä	-4989
gent	-4990
▁gef	-4991
▁rope	-4992
▁below	-4993
▁ought	-4994
▁biggest	-4995
rat	-4996
▁sla	-4997
▁wed	-4998
▁clue	-4999
▁roam	-5000
▁neighb	-5001
▁worldwide	-5002
▁pla	-5003
genre	-5004
▁aiyo	-5005
▁educ	-5006
▁brotha	-5007
▁independ	-5008
000	-5009
▁ashes	-5010
▁packin	-5011
▁snakes	-5012
▁{"	-5013
▁eff	-5014
▁yep	-5015
▁worried	-5016
▁om	-5017
▁fitted	-5018
▁society	-5019
▁ignore	-5020
dou	-5021
▁tro	-5022
▁heal	-5023
▁staring	-5024
▁tend	-5025
▁gates	-5026
▁parce	-5027
▁genius	-5028
▁busta	-5029
▁knuck	-5030
▁ann	-5031
▁chip	-5032
▁seul	-5033
▁complex	-5034
▁jimmy	-5035
▁champion	-5036
▁ink	-5037
▁hous	-5038
▁titt	-5039
▁actually	-5040
▁rib	-5041
▁preach	-5042
▁damage	-5043
▁percent	-5044
▁deuce	-5045
▁france	-5046
▁conversation	-5047
four	-5048
▁pimps	-5049
▁create	-5050
▁stressed	-5051
▁join	-5052
▁silent	-5053
▁covered	-5054
▁direction	-5055
▁roc	-5056
▁savage	-5057
lé	-5058
▁zur	-5059
▁bene	-5060
▁donc	-5061
▁backs	-5062
▁puffin	-5063
▁bong	-5064
▁pumpin	-5065
▁yellin	-5066
▁positive	-5067
▁nan	-5068
▁slee	-5069
▁trynna	-5070
▁wearin	-5071
▁rhymin	-5072
▁figures	-5073
ring	-5074
ettes	-5075
▁justice	-5076
lay	-5077
▁fla	-5078
▁sout	-5079
▁clutch	-5080
▁banging	-5081
▁25	-5082
▁egg	-5083
▁chic	-5084
▁mommy	-5085
rated	-5086
▁emcee	-5087
▁kommt	-5088
▁captain	-5089
▁reb	-5090
▁stronger	-5091
▁appl	-5092
▁shift	-5093
▁religion	-5094
▁ax	-5095
▁whoo	-5096
▁skies	-5097
▁apolog	-5098
▁lifestyle	-5099
▁winner	-5100
▁guts	-5101
▁mafia	-5102
▁spending	-5103
▁mutha	-5104
▁button	-5105
▁jewelry	-5106
▁strictly	-5107
▁becom	-5108
▁motiv	-5109
▁express	-5110
▁private	-5111
▁brew	-5112
▁phant	-5113
▁turnin	-5114
▁innocent	-5115
iques	-5116
▁murda	-5117
▁slack	-5118
▁attract	-5119
ences	-5120
▁peut	-5121
ui	-5122
▁daz	-5123
▁kop	-5124
▁dank	-5125
▁indeed	-5126
▁rippin	-5127
▁scha	-5128
▁langu	-5129
izing	-5130
▁awake	-5131
▁cough	-5132
hhhhhhhh	-5133
▁leader	-5134
▁warri	-5135
▁hooked	-5136
▁consider	-5137
tu	-5138
law	-5139
▁cot	-5140
▁clever	-5141
▁female	-5142
▁important	-5143
bet	-5144
▁shape	-5145
▁encore	-5146
▁ticket	-5147
boo	-5148
gers	-5149
ayy	-5150
aper	-5151
▁aug	-5152
▁sugg	-5153
▁losin	-5154
▁imagin	-5155
▁raus	-5156
▁suggest	-5157
▁tied	-5158
▁avant	-5159
▁notes	-5160
▁section	-5161
▁lun	-5162
▁mann	-5163
▁homicide	-5164
▁blade	-5165
▁regular	-5166
▁physical	-5167
▁weeks	-5168
▁advice	-5169
▁lace	-5170
▁stere	-5171
▁wound	-5172
▁dea	-5173
black	-5174
▁killas	-5175
▁laisse	-5176
▁winning	-5177
tw	-5178
▁offe	-5179
▁seek	-5180
itions	-5181
▁anger	-5182
itation	-5183
▁incredible	-5184
▁quoi	-5185
▁sales	-5186
▁eastside	-5187
.."	-5188
gle	-5189
ights	-5190
▁melt	-5191
▁wrapped	-5192
▁listenin	-5193
cap	-5194
ohh	-5195
▁krie	-5196
▁material	-5197
call	-5198
▁stayin	-5199
▁account	-5200
▁meal	-5201
▁stood	-5202
▁mothafuckin	-5203
4)	-5204
▁david	-5205
▁sisters	-5206
zo	-5207
dem	-5208
▁hin	-5209
▁hunt	-5210
▁stol	-5211
ede	-5212
ggy	-5213
▁saved	-5214
ader	-5215
echo	-5216
▁mov	-5217
▁torn	-5218
▁slept	-5219
▁whore	-5220
strophe	-5221
▁tay	-5222
▁nerve	-5223
▁spine	-5224
▁silver	-5225
▁rats	-5226
eras	-5227
▁lames	-5228
▁dealin	-5229
▁cowards	-5230
▁phantom	-5231
▁involved	-5232
▁sen	-5233
▁false	-5234
▁jersey	-5235
▁praying	-5236
▁ihn	-5237
ookie	-5238
▁lion	-5239
▁alors	-5240
▁legit	-5241
▁dealer	-5242
▁retard	-5243
▁quicker	-5244
▁stroll	-5245
▁era	-5246
ration	-5247
▁sling	-5248
sc	-5249
▁hump	-5250
▁stops	-5251
▁playas	-5252
▁pleasure	-5253
▁vra	-5254
▁pors	-5255
▁bible	-5256
▁arrest	-5257
]:	-5258
▁ohne	-5259
▁parts	-5260
▁slice	-5261
-3	-5262
gress	-5263
▁kenn	-5264
▁sock	-5265
▁globe	-5266
▁reven	-5267
▁traffic	-5268
▁mountain	-5269
ção	-5270
▁pose	-5271
▁rein	-5272
▁skull	-5273
▁finest	-5274
▁beating	-5275
▁grabbed	-5276
erk	-5277
lot	-5278
esse	-5279
▁backst	-5280
azz	-5281
ios	-5282
▁muss	-5283
▁degree	-5284
▁asshole	-5285
▁slaughter	-5286
▁22	-5287
ising	-5288
▁imposs	-5289
uer	-5290
veux	-5291
▁bobby	-5292
▁diese	-5293
▁suckas	-5294
år	-5295
dad	-5296
lon	-5297
▁né	-5298
step	-5299
yard	-5300
lines	-5301
▁goose	-5302
▁appreci	-5303
▁cigaret	-5304
fly	-5305
iju	-5306
▁ec	-5307
▁henny	-5308
▁atlanta	-5309
iro	-5310
▁nun	-5311
▁study	-5312
▁stackin	-5313
bled	-5314
fall	-5315
▁drawers	-5316
eur	-5317
yer	-5318
otch	-5319
rant	-5320
▁intern	-5321
bell	-5322
▁len	-5323
▁pays	-5324
▁sheep	-5325
▁defeat	-5326
▁hardly	-5327
▁hottest	-5328
reg	-5329
▁neva	-5330
▁papa	-5331
▁buddy	-5332
▁suffer	-5333
▁sons	-5334
▁johnny	-5335
▁sixteen	-5336
50	-5337
▁jap	-5338
▁troo	-5339
ances	-5340
eless	-5341
▁prem	-5342
▁event	-5343
▁barrel	-5344
▁papers	-5345
▁company	-5346
ago	-5347
bon	-5348
▁glau	-5349
▁shat	-5350
▁fruit	-5351
▁parano	-5352
▁titties	-5353
▁una	-5354
ulate	-5355
▁rate	-5356
▁engine	-5357
▁shells	-5358
▁creepin	-5359
????	-5360
▁led	-5361
▁sed	-5362
▁freund	-5363
▁jordan	-5364
▁balance	-5365
▁dealing	-5366
▁rea	-5367
▁lake	-5368
▁nike	-5369
▁cette	-5370
▁stall	-5371
▁tools	-5372
acy	-5373
▁fab	-5374
state	-5375
▁celebrate	-5376
▁ans	-5377
▁heh	-5378
▁beside	-5379
iqu	-5380
▁od	-5381
▁exe	-5382
nessy	-5383
▁burned	-5384
▁challen	-5385
eous	-5386
▁rear	-5387
▁reck	-5388
▁vall	-5389
▁ninety	-5390
▁happenin	-5391
wel	-5392
▁jumping	-5393
▁ih	-5394
aster	-5395
itely	-5396
money	-5397
▁swell	-5398
▁relate	-5399
▁boyz	-5400
▁chopper	-5401
▁comment	-5402
▁contact	-5403
▁dealers	-5404
▁deux	-5405
▁weird	-5406
▁nuthin	-5407
▁vicious	-5408
▁happening	-5409
roit	-5410
cedes	-5411
▁descr	-5412
▁weezy	-5413
▁tam	-5414
urity	-5415
▁appeal	-5416
▁bald	-5417
▁assassin	-5418
eau	-5419
▁cin	-5420
▁rappe	-5421
▁buried	-5422
▁laughin	-5423
atics	-5424
▁rugged	-5425
▁grindin	-5426
ndre	-5427
▁yah	-5428
▁slid	-5429
▁plays	-5430
▁fucker	-5431
vert	-5432
▁jac	-5433
▁zwe	-5434
▁flyin	-5435
▁local	-5436
▁decide	-5437
▁meinen	-5438
▁lyrically	-5439
igo	-5440
esty	-5441
▁slangin	-5442
▁spinnin	-5443
▁dut	-5444
▁pil	-5445
▁scary	-5446
▁closet	-5447
▁aven	-5448
▁goal	-5449
▁sets	-5450
▁slut	-5451
▁wars	-5452
▁1)	-5453
▁scars	-5454
▁coffin	-5455
▁orange	-5456
▁willing	-5457
ara	-5458
sem	-5459
▁desire	-5460
rah	-5461
▁clowns	-5462
▁labels	-5463
▁states	-5464
▁stri	-5465
▁hypnot	-5466
with	-5467
▁burst	-5468
▁guarante	-5469
▁mentally	-5470
nas	-5471
▁cav	-5472
▁horr	-5473
▁stad	-5474
▁eagle	-5475
▁impossible	-5476
▁racks	-5477
▁nickel	-5478
▁degrees	-5479
▁weapons	-5480
▁instrument	-5481
▁3]	-5482
▁woll	-5483
▁whist	-5484
▁constantly	-5485
esome	-5486
▁dang	-5487
▁breed	-5488
▁stair	-5489
▁cried	-5490
▁satisf	-5491
▁2,	-5492
▁hus	-5493
▁nar	-5494
▁conv	-5495
▁static	-5496
▁basement	-5497
▁powder	-5498
▁spinning	-5499
▁superstar	-5500
won	-5501
▁fou	-5502
▁chez	-5503
▁gotti	-5504
▁surrounded	-5505
▁wär	-5506
▁rand	-5507
▁phony	-5508
▁knocking	-5509
aime	-5510
▁apr	-5511
▁razor	-5512
▁slash	-5513
▁normal	-5514
▁servin	-5515
hers	-5516
▁lazy	-5517
▁avoid	-5518
▁latin	-5519
▁vocal	-5520
▁midnight	-5521
-0	-5522
igen	-5523
view	-5524
▁loyal	-5525
▁market	-5526
▁language	-5527
enti	-5528
ortun	-5529
▁bold	-5530
▁soak	-5531
té	-5532
away	-5533
▁spar	-5534
▁vegas	-5535
▁shaking	-5536
ties	-5537
▁guck	-5538
▁tapes	-5539
▁bathroom	-5540
▁chickens	-5541
▁sentence	-5542
▁nom	-5543
▁knot	-5544
▁civ	-5545
▁vas	-5546
▁sunny	-5547
▁multip	-5548
▁hustling	-5549
ieux	-5550
itar	-5551
▁unc	-5552
▁harm	-5553
nem	-5554
▁hör	-5555
▁scand	-5556
11	-5557
▁envy	-5558
▁thee	-5559
▁humble	-5560
'-	-5561
stal	-5562
▁thor	-5563
hod	-5564
▁2)	-5565
hort	-5566
▁dubs	-5567
▁ille	-5568
▁contr	-5569
▁satur	-5570
dra	-5571
atter	-5572
▁bowl	-5573
▁reef	-5574
▁venom	-5575
▁mixtape	-5576
▁passing	-5577
▁hennessy	-5578
there	-5579
▁source	-5580
▁quickly	-5581
pow	-5582
____	-5583
▁suppose	-5584
▁electric	-5585
uen	-5586
▁diddy	-5587
▁appear	-5588
▁wasted	-5589
▁mariju	-5590
▁temper	-5591
▁thinks	-5592
▁mothafucka	-5593
bol	-5594
▁skate	-5595
▁divine	-5596
▁supply	-5597
▁impress	-5598
ène	-5599
▁kane	-5600
▁twin	-5601
▁billy	-5602
▁promised	-5603
cel	-5604
▁unter	-5605
▁paying	-5606
▁gentlemen	-5607
last	-5608
▁cyp	-5609
▁ours	-5610
▁buying	-5611
▁sticks	-5612
▁theres	-5613
▁profession	-5614
▁frown	-5615
▁righteous	-5616
▁guaranteed	-5617
lk	-5618
ika	-5619
▁laced	-5620
▁checkin	-5621
▁disease	-5622
etime	-5623
▁regardless	-5624
than	-5625
▁vip	-5626
▁knee	-5627
▁wire	-5628
▁colder	-5629
▁compare	-5630
ème	-5631
?}	-5632
make	-5633
▁fucks	-5634
▁roots	-5635
▁crackin	-5636
▁independent	-5637
misc	-5638
stit	-5639
▁pros	-5640
▁tits	-5641
▁flowin	-5642
buck	-5643
▁scor	-5644
▁posted	-5645
zel	-5646
ilar	-5647
▁brave	-5648
▁inhale	-5649
▁further	-5650
▁stepping	-5651
▁ti	-5652
jack	-5653
uter	-5654
zing	-5655
▁ron	-5656
ondon	-5657
▁solid	-5658
▁models	-5659
▁suckin	-5660
give	-5661
▁beau	-5662
▁custom	-5663
▁beneath	-5664
▁changing	-5665
▁pon	-5666
▁tips	-5667
▁george	-5668
▁prolly	-5669
▁highway	-5670
ilty	-5671
▁eur	-5672
▁roy	-5673
ament	-5674
▁fantasy	-5675
empl	-5676
▁riot	-5677
▁vent	-5678
ograph	-5679
▁mighty	-5680
vior	-5681
aries	-5682
▁dame	-5683
▁runs	-5684
▁vida	-5685
▁presence	-5686
pop	-5687
pper	-5688
▁risk	-5689
▁tant	-5690
▁passe	-5691
pse	-5692
▁ski	-5693
▁figured	-5694
▁garbage	-5695
▁visions	-5696
pass	-5697
▁unt	-5698
▁scheme	-5699
▁writin	-5700
▁glasses	-5701
ading	-5702
▁qual	-5703
▁einen	-5704
▁grams	-5705
kool	-5706
voir	-5707
snoop	-5708
▁grant	-5709
▁devils	-5710
▁univers	-5711
amour	-5712
▁diff	-5713
▁heute	-5714
▁stays	-5715
▁sacrif	-5716
▁houston	-5717
▁dia	-5718
▁meu	-5719
▁veut	-5720
▁command	-5721
▁36	-5722
cience	-5723
▁greed	-5724
▁batter	-5725
▁whisper	-5726
bone	-5727
▁ara	-5728
▁mum	-5729
ample	-5730
▁fond	-5731
▁tempt	-5732
ndo	-5733
umin	-5734
▁lui	-5735
▁clan	-5736
▁heels	-5737
▁general	-5738
▁somehow	-5739
▁watched	-5740
▁downtown	-5741
ald	-5742
lex	-5743
ensive	-5744
5,	-5745
▁sire	-5746
▁dwell	-5747
wr	-5748
mill	-5749
▁ext	-5750
antic	-5751
▁crap	-5752
iverse	-5753
▁hunger	-5754
▁emotion	-5755
▁obvious	-5756
▁cert	-5757
▁gens	-5758
▁juste	-5759
▁waves	-5760
▁breast	-5761
▁worked	-5762
▁13	-5763
▁ast	-5764
▁tri	-5765
young	-5766
▁chap	-5767
▁stee	-5768
▁scott	-5769
llo	-5770
wan	-5771
▁tin	-5772
ulent	-5773
▁hosp	-5774
▁ruff	-5775
▁parking	-5776
fi	-5777
front	-5778
▁sins	-5779
▁gradu	-5780
▁ripped	-5781
fold	-5782
▁bluff	-5783
ati	-5784
ima	-5785
▁moder	-5786
▁collar	-5787
▁hearin	-5788
double	-5789
▁basket	-5790
▁survival	-5791
ded	-5792
▁blah	-5793
▁legal	-5794
▁created	-5795
▁toy	-5796
neath	-5797
▁dent	-5798
▁hills	-5799
▁amount	-5800
▁buggin	-5801
▁movies	-5802
12	-5803
mind	-5804
▁dap	-5805
▁crawl	-5806
▁drums	-5807
▁service	-5808
▁swagger	-5809
▁ii	-5810
▁trips	-5811
▁metaph	-5812
▁reflect	-5813
▁fronting	-5814
▁depuis	-5815
▁grinding	-5816
▁breakfast	-5817
▁funeral	-5818
▁boyfriend	-5819
▁generation	-5820
▁representin	-5821
ula	-5822
ilet	-5823
mers	-5824
▁swo	-5825
▁himself	-5826
▁letters	-5827
▁medicine	-5828
▁goons	-5829
▁county	-5830
▁profit	-5831
▁wishin	-5832
▁dreamin	-5833
▁warning	-5834
ät	-5835
▁kopf	-5836
▁banks	-5837
▁ms	-5838
▁fox	-5839
iggas	-5840
quent	-5841
▁mère	-5842
▁cameras	-5843
▁marijuana	-5844
los	-5845
▁anti	-5846
bad	-5847
▁kon	-5848
▁sac	-5849
▁bumping	-5850
▁interest	-5851
▁.4	-5852
▁diggin	-5853
▁london	-5854
▁internet	-5855
vement	-5856
ora	-5857
heart	-5858
▁panic	-5859
▁payin	-5860
-8	-5861
▁você	-5862
vision	-5863
mber	-5864
▁feat	-5865
▁coffee	-5866
▁dos	-5867
▁puis	-5868
▁tact	-5869
▁southern	-5870
rog	-5871
▁loco	-5872
▁ridic	-5873
▁riders	-5874
▁universe	-5875
bach	-5876
▁indo	-5877
▁seal	-5878
▁shits	-5879
▁cancer	-5880
▁salute	-5881
▁evidence	-5882
ré	-5883
▁cul	-5884
▁snitches	-5885
▁kra	-5886
▁chef	-5887
ppy	-5888
rie	-5889
▁fry	-5890
▁rod	-5891
▁stalk	-5892
zed	-5893
▁oil	-5894
eight	-5895
▁lessons	-5896
▁madness	-5897
▁preacher	-5898
len	-5899
omp	-5900
▁leurs	-5901
▁liber	-5902
▁fights	-5903
▁journey	-5904
ße	-5905
▁toys	-5906
▁penny	-5907
▁yelling	-5908
▁opposite	-5909
▁happiness	-5910
from	-5911
▁trä	-5912
▁blazin	-5913
▁jacket	-5914
▁pimping	-5915
okay	-5916
▁sauce	-5917
▁evening	-5918
sten	-5919
▁underneath	-5920
sk	-5921
voc	-5922
▁[2	-5923
▁resist	-5924
icted	-5925
ipped	-5926
▁dippin	-5927
lles	-5928
stick	-5929
▁bruh	-5930
▁drove	-5931
)]	-5932
omb	-5933
▁ruck	-5934
▁parle	-5935
azy	-5936
fach	-5937
▁apo	-5938
▁ide	-5939
▁mond	-5940
▁cares	-5941
▁works	-5942
▁beware	-5943
▁guilty	-5944
▁opened	-5945
▁fortune	-5946
▁stank	-5947
▁bloods	-5948
▁eighty	-5949
▁french	-5950
▁gather	-5951
▁muscle	-5952
▁stands	-5953
▁wassup	-5954
mmm	-5955
war	-5956
shots	-5957
▁bark	-5958
▁pillow	-5959
▁hundreds	-5960
oin	-5961
ona	-5962
▁froze	-5963
▁rocked	-5964
▁screwed	-5965
▁counting	-5966
ened	-5967
▁rape	-5968
▁stam	-5969
▁tang	-5970
▁capital	-5971
ini	-5972
▁(4	-5973
your	-5974
▁hay	-5975
▁alley	-5976
▁cheat	-5977
▁lexus	-5978
thy	-5979
mean	-5980
▁vag	-5981
.....	-5982
▁commit	-5983
uuuu	-5984
▁nuh	-5985
▁mercedes	-5986
ssup	-5987
turn	-5988
▁krs	-5989
▁mand	-5990
▁title	-5991
▁paradise	-5992
berg	-5993
omme	-5994
▁atta	-5995
▁dieser	-5996
▁typ	-5997
▁indiv	-5998
▁frozen	-5999
▁japan	-6000
▁sides	-6001
▁thong	-6002
▁cuttin	-6003
▁parties	-6004
sec	-6005
▁fum	-6006
attle	-6007
heads	-6008
▁niet	-6009
▁vois	-6010
▁quote	-6011
▁dragon	-6012
▁growin	-6013
▁detroit	-6014
utschland	-6015
ète	-6016
vail	-6017
wwww	-6018
▁exit	-6019
▁pris	-6020
▁quot	-6021
itched	-6022
▁’	-6023
dka	-6024
was	-6025
▁oo	-6026
▁wand	-6027
▁embra	-6028
▁league	-6029
▁ballers	-6030
▁bedroom	-6031
▁catchin	-6032
▁lightning	-6033
▁frag	-6034
fuckin	-6035
▁pushed	-6036
▁program	-6037
▁spendin	-6038
six	-6039
tat	-6040
lord	-6041
▁mour	-6042
▁bitter	-6043
▁emotions	-6044
▁trail	-6045
▁forced	-6046
▁awesome	-6047
▁flowers	-6048
lli	-6049
fill	-6050
▁fee	-6051
▁sew	-6052
▁gray	-6053
▁semi	-6054
▁explode	-6055
▁éc	-6056
isten	-6057
▁sevent	-6058
▁saturday	-6059
▁lut	-6060
▁moe	-6061
▁grav	-6062
▁hass	-6063
▁ohhh	-6064
▁bleeding	-6065
▁neighbors	-6066
▁nightmare	-6067
▁salt	-6068
▁confess	-6069
▁murderer	-6070
dé	-6071
▁acid	-6072
▁soda	-6073
▁influ	-6074
▁chaque	-6075
ere	-6076
good	-6077
ology	-6078
▁cord	-6079
▁careful	-6080
▁packs	-6081
▁blacks	-6082
▁countin	-6083
fit	-6084
▁fears	-6085
▁inform	-6086
▁goo	-6087
▁vet	-6088
▁flam	-6089
▁quem	-6090
▁slop	-6091
▁penet	-6092
▁steak	-6093
▁whoop	-6094
▁murdered	-6095
aye	-6096
▁tum	-6097
▁fois	-6098
▁reste	-6099
ahh	-6100
▁ros	-6101
▁blastin	-6102
▁nou	-6103
assed	-6104
▁duke	-6105
idents	-6106
▁offer	-6107
▁suits	-6108
▁breathin	-6109
▁brag	-6110
▁choo	-6111
▁geah	-6112
▁ross	-6113
▁lighter	-6114
▁towards	-6115
är	-6116
bei	-6117
isa	-6118
▁unique	-6119
▁flowing	-6120
▁surface	-6121
▁understood	-6122
heit	-6123
woah	-6124
▁buff	-6125
▁dicks	-6126
▁machen	-6127
▁willst	-6128
▁flipped	-6129
▁underco	-6130
cro	-6131
onna	-6132
▁fried	-6133
▁root	-6134
▁ecst	-6135
▁vain	-6136
▁sever	-6137
▁porsche	-6138
east	-6139
▁chosen	-6140
▁needle	-6141
▁pistols	-6142
▁amor	-6143
▁hash	-6144
▁conse	-6145
▁peter	-6146
▁outlaw	-6147
▁counter	-6148
//	-6149
aga	-6150
onte	-6151
▁pir	-6152
▁rue	-6153
▁idea	-6154
▁pend	-6155
▁lanes	-6156
▁steam	-6157
’,	-6158
fre	-6159
fire	-6160
though	-6161
▁fantas	-6162
▁garden	-6163
▁grandma	-6164
▁cracked	-6165
▁security	-6166
low	-6167
▁vit	-6168
▁henn	-6169
▁voir	-6170
▁sting	-6171
▁joints	-6172
▁kisses	-6173
▁thrown	-6174
▁spanish	-6175
▁rome	-6176
orious	-6177
▁lemon	-6178
▁marks	-6179
▁upset	-6180
▁lethal	-6181
▁voices	-6182
cu	-6183
▁matt	-6184
▁invent	-6185
▁einfach	-6186
▁retarded	-6187
del	-6188
eezy	-6189
stra	-6190
never	-6191
▁alarm	-6192
▁reveal	-6193
▁mansion	-6194
▁surprised	-6195
▁emb	-6196
▁emer	-6197
▁hors	-6198
▁mothers	-6199
ifest	-6200
▁illegal	-6201
▁mystery	-6202
▁definition	-6203
▁alt	-6204
lection	-6205
▁corrupt	-6206
▁startin	-6207
leg	-6208
gedy	-6209
▁repe	-6210
▁kelly	-6211
imo	-6212
father	-6213
▁purse	-6214
▁pul	-6215
▁burnt	-6216
▁jeden	-6217
▁sending	-6218
rem	-6219
asion	-6220
murder	-6221
▁merde	-6222
▁overse	-6223
scratching	-6224
jam	-6225
ève	-6226
▁iced	-6227
▁necess	-6228
▁skirt	-6229
▁knight	-6230
▁chances	-6231
▁individ	-6232
▁flipping	-6233
▁lic	-6234
▁pré	-6235
hered	-6236
▁gimm	-6237
▁asses	-6238
▁foolish	-6239
dog	-6240
idal	-6241
▁bru	-6242
▁doug	-6243
▁tops	-6244
▁motor	-6245
▁poetry	-6246
▁hospital	-6247
imum	-6248
them	-6249
▁blur	-6250
▁achie	-6251
▁definitely	-6252
olo	-6253
▁adm	-6254
▁conna	-6255
▁lower	-6256
▁veter	-6257
▁caddy	-6258
▁charles	-6259
ault	-6260
3)	-6261
▁session	-6262
▁pier	-6263
▁robbed	-6264
▁woulda	-6265
▁discuss	-6266
▁greater	-6267
nis	-6268
ibal	-6269
▁ups	-6270
▁liebe	-6271
▁bucket	-6272
▁blu	-6273
▁uzi	-6274
▁vai	-6275
asons	-6276
ugh	-6277
lass	-6278
▁pigs	-6279
ication	-6280
▁channel	-6281
▁sacrifice	-6282
7,	-6283
unes	-6284
▁nem	-6285
▁199	-6286
▁lev	-6287
▁cease	-6288
▁issue	-6289
▁scale	-6290
▁intent	-6291
▁office	-6292
ads	-6293
mother	-6294
free	-6295
umbs	-6296
▁pel	-6297
▁mink	-6298
▁puss	-6299
▁sees	-6300
▁crossed	-6301
▁gel	-6302
▁porque	-6303
ete	-6304
▁beatin	-6305
▁combin	-6306
▁misery	-6307
aaaaaaaa	-6308
▁besides	-6309
▁shopping	-6310
eh	-6311
fol	-6312
▁eng	-6313
▁var	-6314
hhhhh	-6315
▁halt	-6316
▁destru	-6317
▁bastards	-6318
app	-6319
▁libs	-6320
▁orle	-6321
▁bands	-6322
▁nails	-6323
▁robber	-6324
▁whores	-6325
▁remains	-6326
▁contract	-6327
▁jean	-6328
▁opin	-6329
▁fakin	-6330
▁points	-6331
igt	-6332
▁pete	-6333
▁peux	-6334
▁bells	-6335
▁thirsty	-6336
cas	-6337
▁gall	-6338
▁besoin	-6339
▁marley	-6340
▁although	-6341
fais	-6342
▁overd	-6343
▁fallen	-6344
▁sucked	-6345
tim	-6346
▁enf	-6347
▁eve	-6348
▁tut	-6349
▁lifetime	-6350
▁connected	-6351
▁appreciate	-6352
▁ganz	-6353
▁jeff	-6354
▁swer	-6355
▁verd	-6356
▁terre	-6357
▁damned	-6358
▁billion	-6359
▁essence	-6360
empt	-6361
▁rust	-6362
▁irgend	-6363
▁starin	-6364
▁separate	-6365
?,	-6366
▁font	-6367
▁civil	-6368
▁groupie	-6369
nac	-6370
▁patron	-6371
▁serving	-6372
▁0	-6373
wha	-6374
▁ll	-6375
▁jan	-6376
iance	-6377
while	-6378
▁critics	-6379
..)	-6380
ems	-6381
udd	-6382
▁rover	-6383
▁rowdy	-6384
▁similar	-6385
▁controll	-6386
▁aids	-6387
▁deals	-6388
▁rights	-6389
▁nav	-6390
▁flas	-6391
▁flee	-6392
▁phase	-6393
▁orleans	-6394
▁jugg	-6395
▁tire	-6396
▁boulev	-6397
▁digits	-6398
▁blessing	-6399
aux	-6400
kel	-6401
rup	-6402
▁disg	-6403
▁sher	-6404
▁prada	-6405
▁prize	-6406
▁combat	-6407
wl	-6408
hard	-6409
thin	-6410
▁groupies	-6411
▁bulletproof	-6412
urb	-6413
hand	-6414
guise	-6415
▁goss	-6416
▁verb	-6417
▁minha	-6418
▁attend	-6419
▁promot	-6420
▁strings	-6421
▁magazine	-6422
ém	-6423
ardi	-6424
ception	-6425
▁candle	-6426
▁wallet	-6427
▁gangsters	-6428
cast	-6429
▁oui	-6430
▁flop	-6431
▁stiff	-6432
▁compre	-6433
born	-6434
▁viens	-6435
▁vodka	-6436
▁unf	-6437
▁capt	-6438
▁pity	-6439
▁tast	-6440
▁escap	-6441
▁object	-6442
▁africa	-6443
▁slipping	-6444
chr	-6445
▁jaws	-6446
▁loin	-6447
▁ruth	-6448
▁modern	-6449
▁faggots	-6450
▁politic	-6451
▁sneakers	-6452
hst	-6453
antee	-6454
known	-6455
▁moan	-6456
▁march	-6457
▁stressin	-6458
!!!)	-6459
▁karma	-6460
▁rolex	-6461
▁inches	-6462
▁mexican	-6463
iche	-6464
field	-6465
▁fancy	-6466
▁soulja	-6467
▁disguise	-6468
▁mick	-6469
▁ending	-6470
▁crystal	-6471
yl	-6472
▁core	-6473
▁buyin	-6474
▁dummy	-6475
▁ident	-6476
▁guitar	-6477
▁whatchu	-6478
▁throughout	-6479
▁rah	-6480
▁hush	-6481
vation	-6482
▁memph	-6483
▁commer	-6484
▁prayer	-6485
▁answers	-6486
▁fuckers	-6487
▁revenge	-6488
▁spiritual	-6489
▁guide	-6490
▁catching	-6491
▁ignorant	-6492
▁negative	-6493
▁possible	-6494
dee	-6495
kur	-6496
▁demo	-6497
▁quel	-6498
▁rout	-6499
▁reasons	-6500
rum	-6501
▁gum	-6502
▁packing	-6503
▁stranger	-6504
▁hu	-6505
▁sar	-6506
fucker	-6507
▁impro	-6508
▁scoop	-6509
▁shade	-6510
▁prefer	-6511
▁stickin	-6512
▁victory	-6513
êt	-6514
cers	-6515
▁sym	-6516
▁ditch	-6517
▁fever	-6518
mission	-6519
▁putain	-6520
▁rocket	-6521
▁swingin	-6522
▁manifest	-6523
itor	-6524
oooh	-6525
▁kno	-6526
▁nix	-6527
kom	-6528
▁90	-6529
rick	-6530
▁jon	-6531
▁firm	-6532
▁requ	-6533
▁cases	-6534
▁amongst	-6535
▁tote	-6536
▁cheek	-6537
▁keiner	-6538
▁guarantee	-6539
▁wy	-6540
▁dag	-6541
▁ruin	-6542
▁tiss	-6543
▁slight	-6544
ued	-6545
vol	-6546
▁rif	-6547
▁rim	-6548
▁cocky	-6549
▁distr	-6550
▁incre	-6551
▁menace	-6552
▁stolen	-6553
chan	-6554
iser	-6555
stein	-6556
▁pages	-6557
▁scare	-6558
▁stacking	-6559
▁gren	-6560
▁neither	-6561
bb	-6562
hah	-6563
ola	-6564
nine	-6565
▁rak	-6566
▁blan	-6567
oph	-6568
outs	-6569
▁log	-6570
▁hail	-6571
▁liar	-6572
▁sail	-6573
▁slum	-6574
▁stim	-6575
▁doggy	-6576
▁upper	-6577
▁stroke	-6578
kl	-6579
velop	-6580
▁gest	-6581
▁tent	-6582
▁tires	-6583
▁traum	-6584
▁depend	-6585
▁ku	-6586
▁lux	-6587
eared	-6588
hamed	-6589
illas	-6590
▁motto	-6591
▁shitty	-6592
▁personne	-6593
cif	-6594
lib	-6595
mad	-6596
bull	-6597
rait	-6598
▁kal	-6599
▁pooh	-6600
▁lickin	-6601
▁feather	-6602
▁scarface	-6603
new	-6604
▁herz	-6605
▁shorts	-6606
▁protection	-6607
pi	-6608
ares	-6609
ingo	-6610
nies	-6611
▁begun	-6612
▁convin	-6613
▁valley	-6614
▁conscious	-6615
▁abus	-6616
▁kissing	-6617
▁montana	-6618
▁relationship	-6619
omy	-6620
phe	-6621
sho	-6622
▁vice	-6623
▁dodge	-6624
▁nikes	-6625
▁oakland	-6626
▁pige	-6627
▁sagen	-6628
▁rising	-6629
▁cooking	-6630
▁45	-6631
▁maker	-6632
▁shack	-6633
▁facing	-6634
▁louder	-6635
▁prophe	-6636
"}	-6637
fs	-6638
quoi	-6639
▁ash	-6640
isions	-6641
▁perio	-6642
▁total	-6643
▁cracks	-6644
▁hurting	-6645
▁whistle	-6646
cuff	-6647
ucht	-6648
▁liked	-6649
▁cherry	-6650
▁naught	-6651
▁clearly	-6652
cip	-6653
▁sei	-6654
block	-6655
▁nacht	-6656
▁types	-6657
▁driver	-6658
▁meinem	-6659
▁planes	-6660
▁reefer	-6661
▁gue	-6662
▁gur	-6663
iggle	-6664
▁mega	-6665
▁greet	-6666
▁ville	-6667
▁chicago	-6668
▁concent	-6669
▁reminisce	-6670
ache	-6671
drop	-6672
▁inna	-6673
▁jets	-6674
▁leak	-6675
▁soir	-6676
▁soll	-6677
▁cannon	-6678
▁freakin	-6679
▁ridiculous	-6680
gh	-6681
cun	-6682
aken	-6683
▁bean	-6684
▁engl	-6685
▁nope	-6686
vre	-6687
flow	-6688
ening	-6689
▁roug	-6690
▁media	-6691
▁border	-6692
▁fifteen	-6693
▁nines	-6694
▁borrow	-6695
▁willie	-6696
rob	-6697
▁mt	-6698
icle	-6699
▁bike	-6700
▁egal	-6701
▁slab	-6702
▁coach	-6703
▁frust	-6704
▁weiter	-6705
▁honestly	-6706
▁boulevard	-6707
jah	-6708
▁iz	-6709
▁gab	-6710
▁pic	-6711
▁purs	-6712
▁coulda	-6713
▁changes	-6714
▁sucking	-6715
▁—	-6716
too	-6717
once	-6718
▁hal	-6719
▁nina	-6720
▁fatal	-6721
▁talked	-6722
▁cutting	-6723
md	-6724
iah	-6725
▁odds	-6726
▁augen	-6727
▁funds	-6728
▁masses	-6729
▁stereo	-6730
▁address	-6731
▁straw	-6732
▁overseas	-6733
▁reaching	-6734
ila	-6735
▁14	-6736
▁abuse	-6737
▁eleven	-6738
▁sleeve	-6739
▁advance	-6740
▁introduce	-6741
▁rau	-6742
▁mund	-6743
▁agree	-6744
▁holds	-6745
▁divide	-6746
▁concerned	-6747
▁kanye	-6748
▁trace	-6749
▁hiding	-6750
▁report	-6751
▁vou	-6752
uthor	-6753
▁hopes	-6754
▁crimes	-6755
▁discip	-6756
cell	-6757
▁nuff	-6758
▁perd	-6759
▁rice	-6760
▁diesel	-6761
▁artists	-6762
las	-6763
▁fac	-6764
▁suc	-6765
belie	-6766
▁cups	-6767
▁escal	-6768
▁flyer	-6769
▁chopped	-6770
▁subject	-6771
▁whassup	-6772
▁themselves	-6773
▁thy	-6774
▁zer	-6775
▁hydro	-6776
▁trucks	-6777
▁charlie	-6778
ena	-6779
▁trife	-6780
▁cookin	-6781
ax	-6782
oon	-6783
▁deter	-6784
▁drill	-6785
▁santa	-6786
▁condom	-6787
▁coward	-6788
bust	-6789
geon	-6790
▁aww	-6791
▁lands	-6792
▁saint	-6793
▁blades	-6794
▁slapped	-6795
cos	-6796
▁lud	-6797
▁jobs	-6798
▁petit	-6799
▁passin	-6800
▁opportun	-6801
▁undercover	-6802
isha	-6803
three	-6804
▁paar	-6805
▁bored	-6806
▁replace	-6807
▁secrets	-6808
scratched	-6809
▁zoo	-6810
▁bras	-6811
▁aside	-6812
▁woods	-6813
▁greedy	-6814
rix	-6815
▁kay	-6816
▁coin	-6817
ugging	-6818
▁ended	-6819
▁fought	-6820
▁veulent	-6821
▁decision	-6822
hab	-6823
▁snip	-6824
▁famil	-6825
▁louie	-6826
▁schol	-6827
▁tommy	-6828
▁jealousy	-6829
gro	-6830
piece	-6831
▁erase	-6832
▁notre	-6833
▁easily	-6834
▁plates	-6835
▁volume	-6836
▁popular	-6837
▁provide	-6838
nent	-6839
amous	-6840
cient	-6841
▁hats	-6842
▁rang	-6843
▁selbst	-6844
▁chamber	-6845
▁princess	-6846
▁technique	-6847
jay	-6848
▁kat	-6849
▁sagt	-6850
▁warn	-6851
▁gauge	-6852
▁warum	-6853
▁meiner	-6854
▁summertime	-6855
▁unse	-6856
▁liter	-6857
▁steve	-6858
▁sucks	-6859
▁explos	-6860
▁roller	-6861
▁seemed	-6862
▁bouncin	-6863
ivity	-6864
▁niem	-6865
perate	-6866
▁filthy	-6867
▁jockin	-6868
▁display	-6869
▁throwed	-6870
▁bac	-6871
aires	-6872
▁shelf	-6873
▁depart	-6874
▁claimin	-6875
▁smiling	-6876
isco	-6877
▁fart	-6878
▁gars	-6879
▁angry	-6880
▁fence	-6881
▁flies	-6882
▁fraud	-6883
▁17	-6884
cles	-6885
▁aren	-6886
▁gras	-6887
▁myst	-6888
▁clack	-6889
▁walks	-6890
▁experience	-6891
▁peak	-6892
▁sway	-6893
▁fired	-6894
▁sicker	-6895
▁stores	-6896
▁possess	-6897
▁scheiße	-6898
▁thorough	-6899
hel	-6900
cies	-6901
will	-6902
▁dealt	-6903
▁pregn	-6904
▁nerves	-6905
▁progress	-6906
▁christian	-6907
val	-6908
▁naughty	-6909
▁mm	-6910
isin	-6911
▁echo	-6912
▁nons	-6913
▁ting	-6914
▁charts	-6915
▁getcha	-6916
▁hidden	-6917
▁served	-6918
▁maybach	-6919
some	-6920
▁aqu	-6921
▁juicy	-6922
▁copped	-6923
▁flossin	-6924
▁screens	-6925
▁handcuff	-6926
▁3,	-6927
anas	-6928
▁talks	-6929
▁lifted	-6930
▁hog	-6931
inten	-6932
▁turf	-6933
▁chalk	-6934
▁heater	-6935
mic	-6936
▁dart	-6937
▁doct	-6938
▁roses	-6939
▁smacked	-6940
▁gym	-6941
▁saf	-6942
▁waited	-6943
▁ot	-6944
▁pé	-6945
▁flaw	-6946
▁outs	-6947
▁gravy	-6948
▁tiger	-6949
▁hustla	-6950
▁vocals	-6951
▁strikes	-6952
▁english	-6953
gia	-6954
▁mos	-6955
▁grands	-6956
▁toutes	-6957
▁selfish	-6958
▁(3	-6959
fort	-6960
▁denk	-6961
▁sole	-6962
▁hearse	-6963
▁conquer	-6964
▁certified	-6965
▁mothafuckas	-6966
show	-6967
iliar	-6968
▁dess	-6969
▁aware	-6970
▁extre	-6971
▁topic	-6972
▁period	-6973
▁sweatin	-6974
▁transform	-6975
▁dor	-6976
iting	-6977
▁accom	-6978
▁rabbit	-6979
▁struck	-6980
▁ashamed	-6981
▁wanting	-6982
opes	-6983
▁werd	-6984
▁hoppin	-6985
▁premier	-6986
quis	-6987
▁mate	-6988
▁alter	-6989
▁lovers	-6990
▁toilet	-6991
▁verste	-6992
lom	-6993
case	-6994
▁nada	-6995
▁tinted	-6996
▁tossed	-6997
▁digital	-6998
▁paranoid	-6999
▁auto	-7000
▁brut	-7001
▁leaf	-7002
▁aller	-7003
▁african	-7004
▁planned	-7005
icip	-7006
bring	-7007
▁bruce	-7008
▁jokes	-7009
▁kidna	-7010
▁wifey	-7011
▁charact	-7012
chi	-7013
ppe	-7014
phere	-7015
▁burns	-7016
▁charm	-7017
▁horny	-7018
▁buddha	-7019
▁lawyer	-7020
▁playboy	-7021
▁checking	-7022
!,	-7023
▁retire	-7024
▁unknown	-7025
▁choppers	-7026
▁nonsense	-7027
▁switches	-7028
▁intellect	-7029
enger	-7030
▁hart	-7031
▁maar	-7032
▁pedal	-7033
▁messed	-7034
▁intelligent	-7035
wis	-7036
olin	-7037
▁obl	-7038
▁sic	-7039
▁vic	-7040
onies	-7041
▁fout	-7042
▁seid	-7043
▁thie	-7044
▁dynam	-7045
▁milli	-7046
▁weave	-7047
▁author	-7048
▁stoned	-7049
tan	-7050
▁mim	-7051
iller	-7052
mouth	-7053
▁idol	-7054
▁sixty	-7055
........	-7056
erto	-7057
▁cole	-7058
niggas	-7059
▁analy	-7060
▁crist	-7061
▁hatred	-7062
▁kissed	-7063
▁speaker	-7064
▁wonderin	-7065
hoo	-7066
▁male	-7067
▁option	-7068
▁measure	-7069
▁computer	-7070
eday	-7071
▁nip	-7072
▁mini	-7073
▁began	-7074
▁searchin	-7075
pos	-7076
zzy	-7077
▁('	-7078
▁pau	-7079
▁yeux	-7080
▁belle	-7081
▁bench	-7082
▁outro	-7083
▁deinen	-7084
▁prayin	-7085
▁gorilla	-7086
▁hopeless	-7087
▁touching	-7088
uzzle	-7089
▁stan	-7090
atte	-7091
▁adam	-7092
▁stripes	-7093
▁floating	-7094
▁superman	-7095
ibly	-7096
▁bund	-7097
▁lawn	-7098
▁liver	-7099
▁jar	-7100
▁film	-7101
▁fils	-7102
▁wing	-7103
▁neckl	-7104
▁carter	-7105
▁chines	-7106
▁entire	-7107
▁expand	-7108
▁teachers	-7109
hit	-7110
iddy	-7111
▁raid	-7112
weight	-7113
▁brush	-7114
▁marry	-7115
▁scope	-7116
▁dipped	-7117
▁effort	-7118
▁actions	-7119
shirt	-7120
▁ferr	-7121
▁rode	-7122
▁trad	-7123
▁wore	-7124
▁fanta	-7125
▁hopped	-7126
▁splash	-7127
▁pourquoi	-7128
-40	-7129
owl	-7130
onne	-7131
orse	-7132
▁gig	-7133
▁lav	-7134
▁lur	-7135
▁sow	-7136
▁armed	-7137
iration	-7138
ulation	-7139
▁mellow	-7140
▁coochie	-7141
▁ecstasy	-7142
jà	-7143
▁pi	-7144
arer	-7145
▁wür	-7146
▁hamm	-7147
▁sequ	-7148
▁sorta	-7149
▁backpack	-7150
▁critical	-7151
▁beggin	-7152
▁comfor	-7153
dis	-7154
▁licks	-7155
▁scient	-7156
▁taylor	-7157
▁termin	-7158
▁picking	-7159
▁infinite	-7160
loc	-7161
made	-7162
▁ful	-7163
▁wen	-7164
▁yap	-7165
▁cran	-7166
▁blend	-7167
▁however	-7168
gne	-7169
▁gran	-7170
itters	-7171
▁fluid	-7172
▁trend	-7173
▁claiming	-7174
may	-7175
tie	-7176
▁slums	-7177
▁conscience	-7178
▁gs	-7179
colm	-7180
jour	-7181
▁kitty	-7182
▁leute	-7183
▁obama	-7184
▁tells	-7185
▁sports	-7186
▁reckless	-7187
▁vacation	-7188
wee	-7189
▁az	-7190
gues	-7191
▁empire	-7192
▁indian	-7193
▁pam	-7194
▁flew	-7195
▁cells	-7196
▁hurtin	-7197
ups	-7198
rupt	-7199
▁chinese	-7200
▁bake	-7201
▁meth	-7202
▁scoo	-7203
▁bruis	-7204
▁peers	-7205
▁casual	-7206
▁killah	-7207
▁central	-7208
▁shorties	-7209
▁{?}	-7210
▁jams	-7211
▁cheer	-7212
▁issues	-7213
▁melody	-7214
▁method	-7215
än	-7216
aur	-7217
ctic	-7218
▁kap	-7219
backs	-7220
▁social	-7221
▁younger	-7222
▁hesitate	-7223
▁ourselves	-7224
▁international	-7225
aah	-7226
ube	-7227
bble	-7228
▁ira	-7229
ables	-7230
▁dive	-7231
▁frère	-7232
▁cooler	-7233
▁slaves	-7234
▁cruisin	-7235
▁respons	-7236
2,	-7237
ibit	-7238
▁mold	-7239
▁russ	-7240
▁sprung	-7241
▁werden	-7242
▁buildin	-7243
▁memphis	-7244
▁someday	-7245
▁equipped	-7246
▁idi	-7247
▁poke	-7248
▁draws	-7249
▁shark	-7250
alo	-7251
izer	-7252
▁kön	-7253
▁bran	-7254
▁mobb	-7255
genius	-7256
▁crois	-7257
▁giant	-7258
▁occup	-7259
▁gifted	-7260
▁ruthless	-7261
▁swinging	-7262
écr	-7263
cend	-7264
▁vos	-7265
▁bash	-7266
▁einer	-7267
▁avenue	-7268
▁busted	-7269
▁leanin	-7270
▁robbin	-7271
▁troops	-7272
▁anytime	-7273
▁gew	-7274
▁oct	-7275
▁ted	-7276
▁solve	-7277
▁heroin	-7278
▁realer	-7279
▁rotten	-7280
cker	-7281
kick	-7282
▁arch	-7283
▁begins	-7284
▁dissin	-7285
▁honeys	-7286
rom	-7287
▁uma	-7288
icans	-7289
icidal	-7290
▁goals	-7291
▁hoods	-7292
▁pover	-7293
▁rocky	-7294
▁kissin	-7295
▁warrior	-7296
▁wasting	-7297
▁challenge	-7298
sst	-7299
athy	-7300
funk	-7301
▁astr	-7302
▁eazy	-7303
▁pile	-7304
▁apply	-7305
▁necks	-7306
▁pearl	-7307
▁spect	-7308
▁trump	-7309
▁sendin	-7310
hehe	-7311
throw	-7312
▁cure	-7313
▁kurupt	-7314
izza	-7315
▁task	-7316
▁exchan	-7317
▁hennes	-7318
▁blazing	-7319
▁laughed	-7320
▁pumping	-7321
reat	-7322
▁jab	-7323
▁sunr	-7324
▁pleas	-7325
▁duckin	-7326
▁puerto	-7327
▁wildin	-7328
▁embrace	-7329
▁process	-7330
▁touchin	-7331
▁scratches	-7332
▁fest	-7333
▁tomb	-7334
▁banana	-7335
▁carpet	-7336
▁crooks	-7337
▁holiday	-7338
▁malcolm	-7339
▁já	-7340
▁coco	-7341
▁sore	-7342
▁tucked	-7343
▁wishes	-7344
▁reverse	-7345
▁followed	-7346
verso	-7347
▁jazz	-7348
▁nein	-7349
▁haunt	-7350
▁fright	-7351
▁treated	-7352
ffle	-7353
▁foe	-7354
▁onto	-7355
ortion	-7356
▁matters	-7357
▁painted	-7358
▁screams	-7359
vey	-7360
rière	-7361
uddle	-7362
▁2000	-7363
▁deaf	-7364
▁sant	-7365
▁shes	-7366
▁sweater	-7367
-6	-7368
yson	-7369
▁pent	-7370
▁beans	-7371
▁schne	-7372
▁upside	-7373
▁profess	-7374
4,	-7375
of	-7376
▁dips	-7377
▁basic	-7378
▁burner	-7379
▁schwar	-7380
▁sermon	-7381
▁crushed	-7382
▁necessary	-7383
aka	-7384
▁umm	-7385
isible	-7386
▁klein	-7387
▁package	-7388
▁homeboys	-7389
▁universal	-7390
uals	-7391
▁defend	-7392
▁reading	-7393
▁presidents	-7394
bla	-7395
pain	-7396
▁éta	-7397
▁schö	-7398
▁mathem	-7399
▁temple	-7400
▁dish	-7401
▁grou	-7402
▁kobe	-7403
▁kong	-7404
▁flicks	-7405
▁oughta	-7406
▁strive	-7407
▁swimming	-7408
ibus	-7409
vest	-7410
▁err	-7411
▁peur	-7412
issent	-7413
▁gesch	-7414
▁minor	-7415
▁toute	-7416
▁sorrow	-7417
▁poverty	-7418
▁refrain	-7419
intro	-7420
▁alpha	-7421
▁porch	-7422
▁compos	-7423
▁learning	-7424
▁precious	-7425
▁pregnant	-7426
▁scandalous	-7427
▁dug	-7428
inkle	-7429
ooooo	-7430
▁irre	-7431
▁stor	-7432
▁jelly	-7433
▁whipped	-7434
▁perfection	-7435
ata	-7436
udo	-7437
acht	-7438
▁fav	-7439
viens	-7440
▁boug	-7441
▁tren	-7442
please	-7443
▁spare	-7444
▁collap	-7445
▁schreib	-7446
▁blessings	-7447
hmm	-7448
▁papi	-7449
▁willi	-7450
▁wrath	-7451
▁kannst	-7452
▁pickin	-7453
▁sloppy	-7454
▁confusion	-7455
nnen	-7456
oner	-7457
▁zoom	-7458
▁jigga	-7459
▁provo	-7460
▁arrive	-7461
cue	-7462
yup	-7463
nnnn	-7464
▁ree	-7465
watch	-7466
▁penit	-7467
▁rides	-7468
▁ultimate	-7469
▁wonderful	-7470
rão	-7471
mies	-7472
▁ese	-7473
était	-7474
▁slit	-7475
▁barre	-7476
▁jusqu	-7477
▁resur	-7478
▁cheeks	-7479
▁zurück	-7480
eem	-7481
oire	-7482
▁chu	-7483
▁dil	-7484
▁arab	-7485
▁après	-7486
▁bliss	-7487
▁scram	-7488
▁becomes	-7489
dan	-7490
pel	-7491
▁té	-7492
iano	-7493
▁cit	-7494
▁mtv	-7495
▁tod	-7496
▁poll	-7497
▁puts	-7498
▁micro	-7499
▁corpor	-7500
▁necklace	-7501
(?)	-7502
smo	-7503
urd	-7504
▁23	-7505
▁aka	-7506
▁dah	-7507
▁prim	-7508
echoes	-7509
▁dolla	-7510
▁constr	-7511
▁garage	-7512
▁chapter	-7513
▁instant	-7514
▁pavement	-7515
▁connection	-7516
bert	-7517
cool	-7518
ifts	-7519
▁déjà	-7520
▁helped	-7521
▁sideways	-7522
stre	-7523
swag	-7524
wick	-7525
ço	-7526
!!)	-7527
▁rico	-7528
▁zwei	-7529
▁craft	-7530
▁syrup	-7531
▁trial	-7532
alright	-7533
▁deiner	-7534
▁daylight	-7535
▁disaster	-7536
▁following	-7537
cé	-7538
uring	-7539
▁ster	-7540
▁subl	-7541
▁petty	-7542
friends	-7543
▁succeed	-7544
▁thugged	-7545
▁expensive	-7546
▁eventually	-7547
10	-7548
fif	-7549
omen	-7550
bridge	-7551
▁diggy	-7552
▁tyson	-7553
▁frères	-7554
▁heated	-7555
▁smiles	-7556
yah	-7557
▁lob	-7558
▁hawk	-7559
▁heiß	-7560
▁viele	-7561
▁diffic	-7562
▁pencil	-7563
▁females	-7564
▁moments	-7565
▁torture	-7566
▁destined	-7567
▁entertainment	-7568
ji	-7569
▁oxy	-7570
▁benef	-7571
▁thief	-7572
▁dissed	-7573
▁reject	-7574
▁granted	-7575
▁sco	-7576
étais	-7577
▁pawn	-7578
▁jacks	-7579
▁affect	-7580
▁philos	-7581
▁spoken	-7582
▁tables	-7583
▁tatted	-7584
▁decided	-7585
▁reached	-7586
▁attached	-7587
▁designed	-7588
▁condition	-7589
▁basketball	-7590
!")	-7591
aud	-7592
auf	-7593
lim	-7594
▁loop	-7595
▁arsch	-7596
▁fists	-7597
▁hurric	-7598
▁despite	-7599
▁ripping	-7600
▁contempl	-7601
▁realized	-7602
has	-7603
▁axe	-7604
hello	-7605
style	-7606
▁logic	-7607
▁mieux	-7608
▁fourth	-7609
▁harmon	-7610
bro	-7611
alal	-7612
anda	-7613
▁caus	-7614
culate	-7615
▁cries	-7616
▁gegen	-7617
▁wolves	-7618
sie	-7619
▁critic	-7620
▁monday	-7621
▁musical	-7622
▁hoch	-7623
▁rast	-7624
ements	-7625
▁worlds	-7626
▁prophet	-7627
▁scarred	-7628
high	-7629
leur	-7630
omet	-7631
true	-7632
▁syn	-7633
retta	-7634
▁tore	-7635
▁shove	-7636
▁bustas	-7637
▁perpet	-7638
▁swerve	-7639
▁mentality	-7640
rin	-7641
arre	-7642
very	-7643
▁rou	-7644
▁cope	-7645
▁fits	-7646
▁clout	-7647
▁cotton	-7648
▁trigga	-7649
▁waking	-7650
▁infamous	-7651
hor	-7652
lam	-7653
ière	-7654
▁spac	-7655
▁boast	-7656
▁junge	-7657
▁skunk	-7658
▁fulfill	-7659
▁pouring	-7660
▁lime	-7661
▁ties	-7662
▁oppon	-7663
▁rumble	-7664
▁miracle	-7665
▁stealing	-7666
pit	-7667
▁enc	-7668
▁fus	-7669
▁web	-7670
utter	-7671
▁sake	-7672
▁tran	-7673
▁vite	-7674
▁notch	-7675
▁spoon	-7676
▁racist	-7677
▁begging	-7678
▁eternal	-7679
ett	-7680
zone	-7681
▁haut	-7682
▁maniac	-7683
▁element	-7684
▁excited	-7685
▁millionaire	-7686
oty	-7687
▁--]	-7688
▁nik	-7689
▁gott	-7690
cor	-7691
sse	-7692
▁cave	-7693
▁homo	-7694
▁suite	-7695
▁tactics	-7696
▁whippin	-7697
oms	-7698
inem	-7699
suck	-7700
▁twe	-7701
lights	-7702
▁drauf	-7703
▁spiel	-7704
▁tribe	-7705
▁boston	-7706
▁mutter	-7707
▁version	-7708
bag	-7709
▁iv	-7710
▁ack	-7711
▁facin	-7712
▁grows	-7713
▁photo	-7714
▁receive	-7715
▁education	-7716
sm	-7717
eee	-7718
cence	-7719
▁beams	-7720
▁kills	-7721
▁poppa	-7722
▁visual	-7723
▁kingdom	-7724
▁repping	-7725
▁satisfied	-7726
tup	-7727
▁ut	-7728
seat	-7729
thang	-7730
▁aunt	-7731
▁krieg	-7732
▁scrub	-7733
▁itself	-7734
▁elevate	-7735
▁friendly	-7736
fat	-7737
idas	-7738
▁pis	-7739
anced	-7740
▁surf	-7741
▁alert	-7742
▁mache	-7743
▁german	-7744
▁twitter	-7745
▁mattress	-7746
▁ignorance	-7747
▁meanwhile	-7748
▁duh	-7749
▁tek	-7750
▁eure	-7751
venile	-7752
▁pumps	-7753
▁shines	-7754
▁sirens	-7755
▁heavenly	-7756
▁legendary	-7757
ufs	-7758
una	-7759
▁-]	-7760
▁ei	-7761
▁nuit	-7762
baland	-7763
▁atmos	-7764
▁sluts	-7765
▁banger	-7766
▁fellow	-7767
▁reflection	-7768
mate	-7769
weli	-7770
▁déf	-7771
▁dose	-7772
▁vend	-7773
iption	-7774
▁thumb	-7775
▁torch	-7776
▁tender	-7777
▁sprayed	-7778
▁representing	-7779
bid	-7780
▁ikk	-7781
▁albums	-7782
▁shatter	-7783
▁trained	-7784
▁veteran	-7785
▁sacks	-7786
▁united	-7787
▁fighter	-7788
▁mainten	-7789
▁brighter	-7790
▁cigarette	-7791
epr	-7792
bron	-7793
lter	-7794
▁hee	-7795
▁asian	-7796
▁lobby	-7797
▁houses	-7798
▁parole	-7799
▁perman	-7800
anz	-7801
▁gag	-7802
▁weigh	-7803
▁liquid	-7804
▁string	-7805
▁videos	-7806
▁terrorist	-7807
daddy	-7808
▁eins	-7809
▁voll	-7810
▁during	-7811
▁horses	-7812
▁sexual	-7813
▁surviv	-7814
▁suspect	-7815
ox	-7816
cia	-7817
vas	-7818
▁voy	-7819
▁anthem	-7820
▁flower	-7821
▁messin	-7822
▁causing	-7823
▁darling	-7824
▁regrets	-7825
né	-7826
mac	-7827
igan	-7828
▁roo	-7829
▁futur	-7830
▁stead	-7831
▁tales	-7832
▁inject	-7833
▁mobbin	-7834
▁blinded	-7835
▁committed	-7836
▁commercial	-7837
▁instrumental	-7838
▁5'	-7839
char	-7840
ieren	-7841
issen	-7842
▁regg	-7843
▁armor	-7844
▁einem	-7845
▁ganja	-7846
▁ninja	-7847
▁pinky	-7848
▁situations	-7849
oir	-7850
▁dey	-7851
▁tab	-7852
▁bees	-7853
▁subt	-7854
▁blaow	-7855
aughters	-7856
▁nightmares	-7857
chte	-7858
▁cem	-7859
▁fas	-7860
▁sid	-7861
aring	-7862
icles	-7863
▁maze	-7864
▁soup	-7865
▁tray	-7866
▁brace	-7867
▁fella	-7868
▁pipes	-7869
▁shouts	-7870
▁develop	-7871
▁hö	-7872
plan	-7873
▁mrs	-7874
▁evol	-7875
▁carol	-7876
▁hobby	-7877
▁rearr	-7878
▁forces	-7879
--------	-7880
▁ancient	-7881
▁worship	-7882
coup	-7883
kind	-7884
▁vrai	-7885
▁cents	-7886
▁navig	-7887
▁phones	-7888
▁wedding	-7889
▁partners	-7890
▁invisible	-7891
▁pes	-7892
▁soap	-7893
▁arrog	-7894
▁stairs	-7895
▁witcha	-7896
▁knuckle	-7897
ortin	-7898
▁unde	-7899
▁guest	-7900
▁jason	-7901
▁circum	-7902
▁staten	-7903
▁digging	-7904
▁familiar	-7905
▁sickness	-7906
▁heartless	-7907
▁	-7908
e	-7909
t	-7910
o	-7911
a	-7912
i	-7913
n	-7914
s	-7915
h	-7916
r	-7917
l	-7918
u	-7919
d	-7920
m	-7921
y	-7922
c	-7923
g	-7924
w	-7925
p	-7926
b	-7927
k	-7928
f	-7929
,	-7930
'	-7931
v	-7932
j	-7933
-	-7934
.	-7935
(	-7936
)	-7937
z	-7938
?	-7939
]	-7940
[	-7941
x	-7942
!	-7943
q	-7944
"	-7945
’	-7946
é	-7947
2	-7948
:	-7949
1	-7950
0	-7951
*	-7952
4	-7953
3	-7954
5	-7955
à	-7956
/	-7957
9	-7958
ü	-7959
è	-7960
ä	-7961
8	-7962
ê	-7963
}	-7964
{	-7965
6	-7966
;	-7967
&	-7968
ç	-7969
7	-7970
ß	-7971
ã	-7972
—	-7973
ö	-7974
‘	-7975
+	-7976
å	-7977
“	-7978
_	-7979
á	-7980
